<pad>	0
<s>	0
</s>	0
<unk>	0
<mask>	0
.	-3.38826
▁	-3.8964
,	-4.07103
의	-4.16222
을	-4.44639
이	-4.44869
는	-4.63389
가	-4.66212
에	-4.66217
를	-4.75752
▁)	-5.06262
▁(	-5.06569
도	-5.07581
은	-5.08087
로	-5.13017
에서	-5.45118
고	-5.45781
으로	-5.47416
한	-5.48196
인	-5.51388
▁이	-5.56375
과	-5.61836
▁수	-5.63207
지	-5.74605
와	-5.783
▁있다	-5.78663
다	-5.81895
기	-5.8499
년	-5.87818
▁1	-5.89953
하는	-6.03076
▁2	-6.05044
▁그	-6.09742
일	-6.10123
나	-6.15231
자	-6.26509
만	-6.28145
서	-6.28661
▁3	-6.29313
시	-6.31268
▁-	-6.31865
'	-6.32926
하고	-6.32938
월	-6.332
에게	-6.33989
▁'	-6.355
해	-6.37733
이다	-6.4255
게	-6.43403
할	-6.43794
:	-6.46063
▁한	-6.4694
리	-6.47038
▁있는	-6.4802
사	-6.49698
라	-6.53252
스	-6.5523
▁한다	-6.55854
면	-6.57489
대	-6.58062
어	-6.59205
수	-6.61831
▁중	-6.63838
▁4	-6.66664
한다	-6.67596
▁때문에	-6.69445
했다	-6.77302
▁"	-6.77599
하게	-6.84405
▁:	-6.8533
▁5	-6.87274
▁안	-6.88057
까지	-6.88642
화	-6.9008
야	-6.90298
▁때	-6.91551
아	-6.92476
▁더	-6.93007
진	-6.93956
된	-6.94593
/	-6.95431
들이	-6.9612
▁전	-6.96283
성	-6.9763
동	-6.97872
전	-6.97976
마	-6.9857
장	-6.98857
▁사	-6.99038
▁후	-6.99954
▁제	-7.02081
드	-7.02093
며	-7.02399
부	-7.03143
-	-7.03899
에서는	-7.04626
▁시	-7.04832
상	-7.05459
트	-7.06437
주	-7.06957
▁이후	-7.08224
▁대	-7.08556
미	-7.08718
▁오	-7.09075
▁다른	-7.09209
▁것	-7.1012
치	-7.10121
하여	-7.10694
라는	-7.10848
니	-7.11445
우	-7.11722
구	-7.12284
정	-7.12503
원	-7.12835
▁신	-7.13002
▁가	-7.13604
!	-7.14219
▁하지만	-7.1431
▁유	-7.14758
▁된다	-7.15499
▁6	-7.15993
▁등	-7.16317
...	-7.1801
▁아	-7.19061
▁그리고	-7.19269
▁다	-7.19458
선	-7.19734
라고	-7.19844
이나	-7.20154
오	-7.20458
비	-7.2113
타	-7.21432
소	-7.22158
▁10	-7.22487
2	-7.22862
명	-7.22991
노	-7.25516
▁7	-7.25995
세	-7.26213
들	-7.26992
보	-7.27137
제	-7.27181
▁고	-7.28369
회	-7.28518
▁주	-7.28552
▁미	-7.28772
던	-7.29405
▁경우	-7.29485
위	-7.30027
신	-7.30196
적	-7.30274
▁할	-7.30325
▁마	-7.30447
▁같은	-7.31592
적인	-7.31646
▁비	-7.31693
"	-7.32156
하	-7.32643
▁내	-7.33254
▁8	-7.33364
▁하는	-7.33783
▁일	-7.34317
해서	-7.35175
르	-7.35214
조	-7.35531
하기	-7.35602
지만	-7.35893
▁나	-7.36342
차	-7.36738
하지	-7.37191
▁것이	-7.37323
▁잘	-7.37894
▁정	-7.38035
용	-7.38118
▁지	-7.38196
무	-7.38557
호	-7.38579
▁말	-7.39424
▁두	-7.40713
▁자	-7.41198
개	-7.41703
산	-7.41793
s	-7.43662
하며	-7.4394
▁함께	-7.44383
파	-7.44692
당	-7.44919
▁하	-7.45166
중	-7.4556
들을	-7.458
형	-7.45996
▁없다	-7.46179
단	-7.46587
▁무	-7.46968
▁부	-7.47874
러	-7.48623
즈	-7.49674
코	-7.4969
1	-7.50391
되어	-7.5041
▁위해	-7.50443
▁...	-7.50602
바	-7.50883
모	-7.51437
▁9	-7.51717
▁것을	-7.51911
되었다	-7.52328
카	-7.5254
히	-7.53722
토	-7.54644
루	-7.55148
▁강	-7.55156
▁소	-7.55268
레	-7.55656
▁구	-7.56345
면서	-7.56644
식	-7.57069
하면	-7.57292
에는	-7.58455
▁성	-7.58583
데	-7.58619
▁모	-7.58711
들은	-7.58822
▁공격	-7.59207
▁기	-7.5967
적으로	-7.59728
3	-7.59818
크	-7.59998
▁다시	-7.60155
▁또한	-7.60632
▁조	-7.60939
역	-7.6099
분	-7.61021
▁가장	-7.61408
프	-7.61437
▁없는	-7.61438
는데	-7.61613
연	-7.61727
▁단	-7.62118
▁대한	-7.62205
▁해	-7.62589
▁카	-7.62717
▁알	-7.62884
군	-7.63274
▁결국	-7.63419
이라는	-7.63479
▁김	-7.6422
번	-7.64389
요	-7.64489
보다	-7.64606
▁바	-7.64914
?	-7.65619
부터	-7.65867
▁서	-7.66026
▁게임	-7.66527
▁세	-7.66684
▁19	-7.66797
▁보	-7.668
▁피	-7.67804
▁리	-7.67916
▁했다	-7.6794
키	-7.67981
▁것이다	-7.6918
▁12	-7.69299
▁되었다	-7.69524
▁동	-7.69791
▁원	-7.69877
네	-7.69923
문	-7.69948
▁A	-7.69963
처럼	-7.70051
경	-7.70413
재	-7.70559
▁다만	-7.70817
디	-7.70826
공	-7.70984
▁스	-7.71123
계	-7.71537
▁보면	-7.71629
린	-7.71735
▁많이	-7.71774
방	-7.71914
거	-7.71951
▁타	-7.72537
포	-7.73047
▁적	-7.73264
▁볼	-7.73468
이라고	-7.73479
▁S	-7.73743
관	-7.74399
▁0	-7.74476
▁모두	-7.74706
되는	-7.74957
▁상	-7.75038
▁건	-7.7546
영	-7.75621
▁것으로	-7.75715
발	-7.76077
들의	-7.76354
▁자신의	-7.76927
급	-7.76986
▁것은	-7.77106
▁모든	-7.77295
된다	-7.77748
터	-7.77896
거나	-7.77994
▁반	-7.78131
유	-7.78395
▁정도	-7.78752
▁양	-7.7889
건	-7.79343
▁공	-7.79442
체	-7.79541
▁당시	-7.79576
판	-7.80323
란	-7.80643
병	-7.80824
안	-7.80873
려	-7.81075
내	-7.81506
하였다	-7.81747
▁못	-7.82302
▁선	-7.82343
▁B	-7.82345
▁/	-7.82499
▁매우	-7.82536
▁걸	-7.82628
강	-7.82684
▁도	-7.82686
천	-7.82713
▁장	-7.83009
질	-7.83485
초	-7.83843
국	-7.83932
▁큰	-7.84093
간	-7.844
▁불	-7.84541
▁사실	-7.84849
▁게	-7.84894
▁C	-7.8505
▁그러나	-7.85107
▁뒤	-7.85108
하다	-7.85352
▁재	-7.85703
▁박	-7.86019
▁거	-7.86242
▁11	-7.86455
▁어	-7.8651
▁편	-7.86795
▁및	-7.86884
▁진	-7.86953
석	-7.87111
여	-7.87173
권	-7.87397
종	-7.8765
▁한국	-7.87912
▁M	-7.88063
▁시즌	-7.8852
▁발	-7.88691
▁물론	-7.88985
▁하고	-7.88989
하면서	-7.89277
현	-7.89644
▁코	-7.89741
교	-7.90527
실	-7.90953
▁남	-7.90957
▁이상	-7.91276
▁우	-7.91405
그	-7.91454
~	-7.92146
▁호	-7.92207
▁노	-7.9267
▁초	-7.9293
▁있었다	-7.93009
운	-7.93084
민	-7.93679
브	-7.94061
점	-7.94238
▁차	-7.94452
▁아니라	-7.94769
▁저	-7.94775
츠	-7.94933
▁인	-7.95414
피	-7.95453
티	-7.95499
엔	-7.95749
▁파	-7.95916
4	-7.96038
▁이런	-7.96053
이며	-7.96199
▁된	-7.96523
▁따라	-7.97133
D	-7.97214
▁일본	-7.97258
물	-7.97291
후	-7.97404
▁총	-7.97485
▁바로	-7.97643
▁포	-7.97902
▁20	-7.97904
▁많은	-7.98369
생	-7.98419
작	-7.98492
▁연	-7.98551
쿠	-7.99003
행	-7.99125
에서도	-7.99321
y	-7.99351
이라	-8.00156
▁경	-8.00373
▁모습을	-8.00442
▁거의	-8.00898
▁사용	-8.01473
더	-8.01646
양	-8.01923
▁아닌	-8.01946
▁하나	-8.02321
배	-8.03082
법	-8.03343
▁G	-8.03728
▁시리즈	-8.0387
▁명	-8.04062
학	-8.04359
▁역시	-8.05126
▁P	-8.05243
▁방	-8.05422
▁치	-8.05589
▁배	-8.05616
두	-8.05814
▁로	-8.06499
m	-8.06794
반	-8.07545
▁않고	-8.07593
▁있으며	-8.07738
▁개	-8.07968
▁특히	-8.07988
▁입	-8.08212
였다	-8.09224
었다	-8.09423
▁위	-8.09634
승	-8.0976
▁여	-8.09807
기도	-8.10491
▁듯	-8.10576
태	-8.10642
에도	-8.1085
집	-8.10917
▁있는데	-8.11038
▁시작	-8.11787
준	-8.12101
▁달리	-8.12102
저	-8.12322
▁좋은	-8.12395
류	-8.12524
▁등장	-8.12525
▁캐릭터	-8.13064
▁않는	-8.13315
▁같이	-8.13342
▁본	-8.13708
▁해당	-8.13763
▁F	-8.14246
메	-8.14618
▁T	-8.14714
▁팀	-8.14752
▁번	-8.15006
속	-8.15136
▁첫	-8.15215
▁D	-8.15339
▁약	-8.15349
편	-8.15372
탄	-8.15801
▁15	-8.15991
▁현재	-8.16149
+	-8.16241
림	-8.16372
온	-8.16429
력	-8.1676
▁레	-8.16871
금	-8.16878
A	-8.17398
▁또	-8.17671
▁라	-8.17947
했던	-8.17986
▁추가	-8.1849
스트	-8.18548
기를	-8.18585
▁토	-8.18673
▁매	-8.18786
버	-8.18792
▁그냥	-8.19033
론	-8.19159
테	-8.19567
랑	-8.19653
▁통해	-8.19683
에선	-8.19684
▁보인다	-8.19823
P	-8.19855
▁보고	-8.20247
▁화	-8.20424
이었다	-8.20593
▁스킬	-8.207
감	-8.20792
▁외	-8.20884
인데	-8.21125
하지만	-8.21263
C	-8.21604
▁않는다	-8.21659
▁정도로	-8.21736
▁데	-8.21881
▁영화	-8.21906
▁실	-8.22135
살	-8.22326
▁키	-8.22577
▁되는	-8.22906
등	-8.22996
▁상당히	-8.23065
▁줄	-8.23289
▁않은	-8.23441
지는	-8.23515
G	-8.2357
심	-8.23923
래	-8.24078
다가	-8.24135
각	-8.24362
곡	-8.24637
▁진행	-8.24738
▁+	-8.25043
해야	-8.25071
출	-8.25328
▁2018	-8.25441
▁되어	-8.25574
▁가지고	-8.25615
t	-8.26462
▁백	-8.26469
으며	-8.26626
B	-8.26642
직	-8.27137
▁하다	-8.27161
▁영	-8.27182
창	-8.27265
▁인해	-8.27268
▁2017	-8.2732
▁많다	-8.2749
남	-8.27556
▁심	-8.27885
▁산	-8.28487
▁날	-8.28668
복	-8.2873
음	-8.28769
▁있고	-8.28944
왕	-8.29199
▁천	-8.29441
▁18	-8.29642
▁있을	-8.29979
5	-8.30045
▁수도	-8.30117
▁K	-8.30309
릴	-8.30596
▁물	-8.30738
▁전투	-8.30813
▁대신	-8.31089
M	-8.31415
▁R	-8.31456
▁그대로	-8.31502
▁속	-8.32149
▁미국	-8.32257
▁것도	-8.32853
되고	-8.32914
▁당	-8.32934
▁2016	-8.33148
▁생각	-8.33255
▁플레이	-8.33386
▁계속	-8.33693
난	-8.33694
▁상대	-8.33836
▁간	-8.33938
령	-8.33984
너	-8.34288
▁자기	-8.34387
▁에	-8.34401
▁30	-8.34433
▁문	-8.34505
▁아이	-8.34835
K	-8.35074
▁16	-8.35099
▁왕	-8.35157
투	-8.35195
▁대해	-8.35662
E	-8.35904
▁역	-8.36149
▁패	-8.36267
▁될	-8.36754
했고	-8.36781
희	-8.3683
▁없이	-8.36932
▁군	-8.36962
색	-8.36982
▁즉	-8.37016
박	-8.37175
하자	-8.37304
통	-8.38179
▁만	-8.38188
▁E	-8.38189
e	-8.38487
▁관련	-8.38579
▁이미	-8.38872
들에게	-8.39048
▁경우가	-8.39241
족	-8.39381
▁각	-8.39424
▁2019	-8.39585
▁일부	-8.39591
져	-8.40112
▁열	-8.40158
▁기록	-8.40197
▁난	-8.40436
▁자신이	-8.40518
▁높은	-8.40573
▁최	-8.41058
▁동안	-8.41066
▁있지만	-8.41365
▁나오는	-8.41438
▁H	-8.41519
▁여러	-8.41545
L	-8.41809
들과	-8.41886
절	-8.42048
▁경기	-8.42233
설	-8.42472
든	-8.42485
▁좀	-8.42507
워	-8.42691
S	-8.42819
▁문제	-8.43278
이지만	-8.43503
▁그런	-8.43509
▁변	-8.43578
▁카드	-8.43824
량	-8.43854
▁야	-8.44449
▁현	-8.45105
함	-8.45146
▁손	-8.4528
R	-8.45349
▁직접	-8.45403
▁나온다	-8.45437
▁다음	-8.4568
▁13	-8.45787
길	-8.45788
층	-8.45819
er	-8.45997
매	-8.46323
▁어느	-8.46655
▁실제로	-8.46676
때	-8.46746
임	-8.46807
▁달	-8.47023
▁교	-8.47087
▁너무	-8.47112
광	-8.47138
T	-8.47156
6	-8.47388
베	-8.47439
."	-8.47614
▁기술	-8.47695
업	-8.47716
▁점	-8.47808
하던	-8.47937
▁이를	-8.48083
▁작품	-8.48321
년에	-8.48506
목	-8.48513
격	-8.48591
열	-8.48637
▁주인공	-8.48883
▁금	-8.48946
▁W	-8.4896
▁사람이	-8.49098
퍼	-8.4918
▁→	-8.4929
▁세계	-8.49453
▁14	-8.4965
▁들어	-8.4975
긴	-8.49823
▁애	-8.50108
▁베	-8.50193
▁있던	-8.50288
▁살	-8.51064
▁마지막	-8.51436
락	-8.51438
▁이름	-8.51729
▁일반	-8.51835
▁분	-8.51853
▁무기	-8.52164
링	-8.52242
환	-8.52419
o	-8.52495
▁별	-8.5253
O	-8.52557
표	-8.52585
▁참고로	-8.52812
▁광	-8.52864
▁기본	-8.529
▁시간	-8.5316
청	-8.53182
▁선수	-8.53261
▁인간	-8.53274
▁몇	-8.53313
말	-8.53349
▁등의	-8.534
▁채	-8.53592
▁중국	-8.53796
▁예	-8.53829
대로	-8.53863
▁친	-8.53981
▁마법	-8.53983
▁2015	-8.54026
a	-8.54092
▁허	-8.54249
▁17	-8.54489
될	-8.54692
7	-8.54707
▁가능	-8.54709
▁아니다	-8.54892
▁방송	-8.55159
맨	-8.55166
본	-8.55266
▁지역	-8.55526
울	-8.55572
▁말을	-8.55686
▁팔	-8.56083
n	-8.5615
▁네	-8.56162
자가	-8.5618
커	-8.56186
▁크게	-8.56275
이고	-8.56394
▁제대로	-8.564
▁레벨	-8.5687
▁상태	-8.5716
▁나온	-8.57276
팀	-8.57657
▁영상	-8.57849
▁이동	-8.58
▁요	-8.58189
블	-8.58698
달	-8.58798
▁이야기	-8.58984
으면	-8.59091
▁증가	-8.59194
▁삼	-8.5926
▁설명	-8.59345
▁막	-8.59446
▁있어	-8.59507
▁않았다	-8.59647
예	-8.59766
▁여성	-8.59958
▁전부	-8.60164
▁메	-8.60176
▁존재	-8.60244
▁황	-8.60682
결	-8.60735
▁때문	-8.60736
▁사이	-8.61138
▁원래	-8.61192
▁자주	-8.61336
패	-8.61338
▁쿠	-8.6163
F	-8.61823
▁그런데	-8.61981
▁악	-8.62065
되지	-8.62552
▁갈	-8.62923
▁의해	-8.63159
▁이는	-8.63266
약	-8.63383
al	-8.63405
▁활동	-8.63475
하는데	-8.63696
8	-8.63739
▁이때	-8.64004
▁용	-8.6405
▁N	-8.64144
시간	-8.64175
하기도	-8.64406
리아	-8.64489
날	-8.64721
▁과거	-8.64761
근	-8.64762
▁쓰	-8.65231
기가	-8.65258
이자	-8.65276
▁온	-8.65413
i	-8.6558
백	-8.65615
X	-8.658
탈	-8.65839
▁좋다	-8.6588
불	-8.65952
녀	-8.66014
▁있어서	-8.66042
▁오히려	-8.66262
검	-8.66351
▁설정	-8.66554
범	-8.66628
립	-8.66686
▁돌	-8.66737
▁최대	-8.6674
▁들	-8.66771
▁비해	-8.66878
있는	-8.66945
▁창	-8.6699
▁가능하다	-8.67212
였던	-8.6728
▁#	-8.67322
▁O	-8.67389
▁때문이다	-8.67432
▁적이	-8.67468
▁주로	-8.67723
갈	-8.67725
▁서울	-8.67936
철	-8.68202
▁V	-8.68277
담	-8.6828
▁게다가	-8.68467
▁버	-8.68484
합	-8.68563
▁투	-8.68602
▁위한	-8.68635
▁가진	-8.68644
▁사람	-8.6865
▁해도	-8.68849
▁선택	-8.68859
▁L	-8.68954
▁통	-8.69013
▁소환	-8.6932
망	-8.69341
▁~	-8.69369
처	-8.69376
▁I	-8.69378
기에	-8.69588
▁남자	-8.69594
▁관	-8.69704
▁만들어	-8.69732
글	-8.69765
▁보스	-8.69806
▁평	-8.69853
9	-8.69926
친	-8.69945
▁아예	-8.69959
▁서로	-8.70078
품	-8.70342
다고	-8.70686
▁청	-8.70886
▁일단	-8.71015
페	-8.71288
▁국가	-8.71297
▁그의	-8.71452
▁X	-8.71587
▁임	-8.71647
▁지원	-8.72136
했을	-8.72194
▁2014	-8.72244
하거나	-8.72285
▁하지	-8.72474
쳐	-8.72626
▁문서	-8.72853
▁100	-8.73077
▁알고	-8.7322
술	-8.73363
▁승리	-8.73536
했지만	-8.7356
▁눈	-8.73563
▁보통	-8.7373
▁망	-8.73922
▁어떤	-8.74032
독	-8.74066
▁곡	-8.74139
▁파괴	-8.74142
플	-8.74191
평	-8.74271
▁버전	-8.74281
▁감	-8.74539
▁여자	-8.74549
덕	-8.74772
h	-8.74914
▁있다는	-8.74962
▁쓸	-8.75017
▁처음	-8.75027
▁사실상	-8.75159
▁디	-8.75247
▁풀	-8.75372
en	-8.75399
ing	-8.75451
▁사건	-8.75531
렌	-8.75591
]	-8.7567
▁몬스터	-8.75712
악	-8.75726
I	-8.75732
몬	-8.75738
▁둘	-8.76049
인지	-8.76372
케	-8.76387
언	-8.76503
션	-8.76578
▁있기	-8.76581
▁이에	-8.76628
▁순	-8.76885
▁개발	-8.76932
▁새	-8.77288
걸	-8.77333
▁태	-8.7735
화에서	-8.77439
▁않다	-8.77441
▁만든	-8.7752
▁비슷한	-8.77522
▁길	-8.77728
▁평가	-8.77809
▁독	-8.7806
들도	-8.78158
▁방어	-8.78273
▁밀	-8.78277
▁J	-8.78289
▁자체	-8.78746
입	-8.78824
N	-8.78927
d	-8.78977
외	-8.79178
봉	-8.79331
▁강화	-8.79368
V	-8.79572
▁종	-8.7963
다는	-8.79672
기는	-8.7971
▁하며	-8.80244
▁정보	-8.80249
▁성공	-8.80271
▁되고	-8.80292
▁완전히	-8.80414
▁같다	-8.80435
▁판	-8.80629
▁이벤트	-8.80912
u	-8.81172
턴	-8.81184
▁페	-8.81449
라면	-8.81572
성이	-8.81656
0	-8.81713
·	-8.81721
까	-8.81749
▁추	-8.81901
▁그래도	-8.82278
▁이렇게	-8.82281
별	-8.82597
▁혹은	-8.8262
▁그렇게	-8.82626
▁전혀	-8.82643
▁꽤	-8.82852
の	-8.82869
an	-8.82949
훈	-8.82991
▁송	-8.83112
ar	-8.83274
▁직	-8.83274
돌	-8.83316
▁필요	-8.8344
▁하면	-8.83461
▁[	-8.8353
▁일이	-8.83628
▁대부분	-8.83678
씨	-8.83759
줄	-8.83797
▁심지어	-8.83858
▁과	-8.83892
▁소속	-8.83974
▁본인	-8.84003
▁기사	-8.84123
▁먼저	-8.84138
료	-8.84296
졌다	-8.8431
H	-8.84346
증	-8.84517
▁그래서	-8.84574
막	-8.84674
▁루	-8.84772
▁제작	-8.84785
▁검	-8.84877
▁효과	-8.84953
r	-8.85128
▁유지	-8.8513
10	-8.85189
애	-8.85225
추	-8.85242
▁the	-8.85848
같은	-8.85953
U	-8.8597
▁회복	-8.86007
볼	-8.8601
▁출연	-8.86376
▁동시에	-8.86464
▁결과	-8.86487
▁맞	-8.86492
▁와	-8.86516
른	-8.86609
▁병	-8.86768
▁전쟁	-8.86812
주의	-8.86916
▁생	-8.87065
송	-8.87101
항	-8.87129
룡	-8.87243
or	-8.87551
▁25	-8.87662
▁아이템	-8.87801
▁법	-8.87818
▁2013	-8.8783
▁앞	-8.88174
▁21	-8.88209
▁뿐	-8.88435
님	-8.8847
k	-8.88582
▁상황	-8.88606
in	-8.88612
성을	-8.88628
▁스타	-8.88796
변	-8.8884
스의	-8.88908
▁있다고	-8.88933
마다	-8.88935
▁스토리	-8.88968
와의	-8.89011
p	-8.89134
▁프로	-8.89358
▁도시	-8.89473
▁유닛	-8.89689
▁등을	-8.89812
주는	-8.8987
▁공격력	-8.89955
순	-8.90029
▁성우	-8.90272
le	-8.90284
▁정말	-8.90383
▁집	-8.90386
▁연구	-8.90442
록	-8.90452
경기	-8.90506
채	-8.90684
▁패배	-8.90754
▁리그	-8.9094
슨	-8.90982
년대	-8.91019
▁언급	-8.91091
거리	-8.9139
스타	-8.91412
▁그나마	-8.91535
했다고	-8.91537
▁폭	-8.9162
풍	-8.9185
▁공식	-8.91922
했는데	-8.92183
▁학교	-8.92378
▁준	-8.92447
▁쓰는	-8.92457
▁영웅	-8.92811
▁받아	-8.92815
f	-8.9294
on	-8.92977
과는	-8.93034
▁힘	-8.93174
▁전에	-8.9327
▁주장	-8.93276
▁레이	-8.93374
▁승	-8.93385
▁참조	-8.9346
▁조금	-8.93603
북	-8.93657
▁운영	-8.9366
▁되	-8.93699
▁인물	-8.93759
▁덕분에	-8.93814
진다	-8.93898
▁결정	-8.93982
▁참	-8.94234
▁문제가	-8.94298
▁글	-8.94348
▁사용자	-8.94454
▁자신을	-8.94513
▁만큼	-8.94535
▁이러한	-8.94678
▁좋아	-8.94736
▁아버지	-8.94807
▁샤	-8.95
▁50	-8.95051
렸다	-8.95066
▁벌	-8.95131
▁계	-8.95239
▁질	-8.95273
▁2012	-8.95273
▁새로운	-8.95276
리는	-8.9534
이기도	-8.95413
▁경우도	-8.95416
스가	-8.95418
▁딸	-8.95655
▁아니	-8.95691
▁힘을	-8.95721
일에	-8.95803
▁출신	-8.95829
▁따라서	-8.95869
▁기준	-8.95873
▁발매	-8.95881
밀	-8.95941
▁감독	-8.95948
지를	-8.95989
▁목	-8.95992
▁개인	-8.96069
c	-8.96105
▁복	-8.96105
▁전체	-8.96148
l	-8.96148
귀	-8.96152
규	-8.9617
▁극	-8.96231
와는	-8.96259
겨	-8.96363
으나	-8.96402
▁골	-8.96442
▁만나	-8.96527
20	-8.96613
리스	-8.96763
▁발동	-8.9699
장을	-8.97082
했으며	-8.97103
Y	-8.97135
지도	-8.97237
▁왜	-8.97277
▁성격	-8.97313
있다	-8.97483
▁민	-8.97633
▁했지만	-8.97669
▁맵	-8.97678
▁22	-8.97738
▁없었다	-8.97772
▁배우	-8.97864
시켜	-8.97922
율	-8.98081
▁윤	-8.98088
팅	-8.98283
▁여기서	-8.983
▁모드	-8.98331
총	-8.98385
▁귀	-8.98389
▁실제	-8.98407
▁국	-8.98481
=	-8.98531
▁하는데	-8.9859
▁친구	-8.98596
▁받고	-8.98643
▁편이다	-8.98699
▁버스	-8.98767
▁실패	-8.98796
▁나가	-8.98821
▁인정	-8.98865
린다	-8.98909
▁표현	-8.99069
▁멤버	-8.9915
▁우승	-8.99256
▁티	-8.9937
▁수준	-8.99434
▁만들	-8.99462
▁자체가	-8.9948
▁체	-8.9956
▁굉장히	-8.99648
▁변경	-8.99703
황	-8.99747
클	-8.99853
▁팬	-9.0001
라도	-9.00263
▁탄	-9.00398
▁때는	-9.00591
이었던	-9.00592
기로	-9.00594
▁건물	-9.00738
▁of	-9.00768
▁음악	-9.00806
▁차량	-9.00806
▁사망	-9.00839
냐	-9.00957
▁사용하는	-9.01068
▁홍	-9.0115
▁노래	-9.01172
▁체력	-9.01233
▁속도	-9.01378
름	-9.01408
▁설	-9.01408
▁또는	-9.01583
▁칼	-9.01611
▁경찰	-9.01745
▁철	-9.01815
▁커	-9.01923
▁히	-9.01965
▁노선	-9.01966
▁생산	-9.01999
위를	-9.02024
슈	-9.02075
한테	-9.02082
▁식	-9.02146
▁혼	-9.0217
▁북	-9.02431
▁뭐	-9.02553
▁모델	-9.02577
▁먹	-9.02683
ed	-9.0272
▁24	-9.0276
▁사람들이	-9.02798
▁애니메이션	-9.0285
▁풍	-9.02864
▁능력	-9.02911
▁속성	-9.02913
런	-9.02939
▁독일	-9.02988
▁최종	-9.03114
▁당연히	-9.03156
▁현대	-9.03163
▁없고	-9.03233
▁올	-9.03246
▁시절	-9.03258
▁그리	-9.03323
▁탈	-9.03406
▁항목	-9.03498
▁처	-9.03638
골	-9.03821
▁아직	-9.03836
▁모양	-9.03876
▁등장하는	-9.03909
▁이어	-9.04142
▁U	-9.04199
누	-9.04282
!"	-9.04287
▁마찬가지로	-9.04426
먹	-9.04427
▁슈퍼	-9.04626
만큼	-9.04706
▁관계	-9.04757
레벨	-9.04817
▁한번	-9.04947
▁끝	-9.05162
W	-9.05187
▁몸	-9.05455
▁우리	-9.05586
▁만화	-9.05588
▁급	-9.05672
▁받은	-9.06144
▁플레이어	-9.06188
▁까	-9.0635
▁가능성이	-9.06419
▁드라마	-9.06662
슬	-9.06746
스터	-9.0685
▁?	-9.0692
▁2010	-9.06991
▁엘	-9.07053
혀	-9.07075
수가	-9.0714
씩	-9.0723
이기	-9.07321
▁40	-9.07382
▁못하고	-9.07452
것	-9.0747
th	-9.07508
없이	-9.07716
▁행동	-9.07737
했으나	-9.07745
▁가지	-9.07766
▁합	-9.0789
b	-9.07933
▁이용	-9.07987
▁아주	-9.08016
스를	-9.08033
▁있게	-9.08249
충	-9.0832
▁엄청난	-9.08332
▁니	-9.084
▁형	-9.08583
자를	-9.08605
▁학	-9.08707
력이	-9.08718
력을	-9.08727
▁23	-9.08822
려고	-9.08852
▁깨	-9.0886
▁순간	-9.08864
▁클리어	-9.08921
▁등이	-9.08998
▁해서	-9.09041
▁시간이	-9.09048
▁쇼	-9.0917
▁빈	-9.09308
▁어머니	-9.09349
▁테	-9.09371
▁못한	-9.0943
re	-9.09497
▁이전	-9.09535
▁강력한	-9.09561
▁따르면	-9.09586
▁최고	-9.09799
▁차단	-9.09838
50	-9.10005
at	-9.10035
손	-9.10082
▁비판	-9.10097
▁가능한	-9.10196
학년	-9.10236
▁이름을	-9.10354
▁처리	-9.10359
시키는	-9.10361
찬	-9.10427
▁공격을	-9.10608
▁프리	-9.10622
▁참고	-9.107
사를	-9.10759
▁잠	-9.10884
▁작	-9.10889
▁더욱	-9.1098
▁누	-9.11057
▁괴	-9.11098
축	-9.11192
▁위치	-9.11209
▁섬	-9.11218
▁쉽게	-9.11302
▁마을	-9.11314
▁영국	-9.11324
ー	-9.11349
▁슈	-9.11423
11	-9.11442
딩	-9.11508
▁상대로	-9.11511
▁울	-9.11541
▁말이	-9.11551
▁있었던	-9.11563
았다	-9.11572
▁너	-9.11586
▁현실	-9.11621
쪽	-9.11865
▁회사	-9.11897
▁에피소드	-9.11921
조차	-9.12047
▁발견	-9.12321
▁국내	-9.1239
▁앨범	-9.12509
명이	-9.12554
▁드래곤	-9.12557
▁감소	-9.12609
▁내용	-9.12623
▁나라	-9.12654
벌	-9.12703
▁지구	-9.12721
▁확인	-9.12752
▁아군	-9.129
▁사랑	-9.12906
▁장비	-9.12997
▁시스템	-9.13069
▁잔	-9.13108
장이	-9.1315
엘	-9.13302
▁들어가	-9.13414
it	-9.13416
쉬	-9.13426
▁어떻게	-9.13482
전에서	-9.13584
▁특수	-9.13742
▁없어	-9.13749
리가	-9.13772
▁담당	-9.13877
▁인기	-9.13911
명을	-9.13943
어서	-9.13985
번째	-9.14
킹	-9.1405
▁폭발	-9.14337
듯	-9.1456
▁역사	-9.14696
례	-9.14701
▁헤	-9.14722
▁보내	-9.14727
▁접	-9.14815
▁진출	-9.14883
▁대사	-9.14936
▁훨씬	-9.15102
보다는	-9.15156
▁하자	-9.15243
▁상승	-9.15512
우스	-9.15552
▁연기	-9.15591
사가	-9.15613
▁하루	-9.1575
세대	-9.15844
곤	-9.15853
▁준비	-9.15862
mm	-9.15868
▁정신	-9.15907
▁여전히	-9.16089
되면서	-9.16113
▁등장한다	-9.16151
▁높다	-9.16281
▁의미	-9.16321
▁절	-9.16468
머	-9.16542
칠	-9.16665
▁표	-9.16794
샤	-9.16916
》	-9.16927
▁나왔다	-9.16929
습	-9.1697
▁문제는	-9.16977
▁공개	-9.17006
▁사용할	-9.17056
▁활약	-9.17101
▁따	-9.17245
삼	-9.17289
▁설치	-9.17491
궁	-9.17591
참	-9.17605
▁불구하고	-9.17699
▁기준으로	-9.17706
▁모습이	-9.17708
▁존	-9.17732
▁각각	-9.17737
▁선발	-9.17898
▁활용	-9.17941
혼	-9.18042
▁파워	-9.18204
-1	-9.18239
▁프랑스	-9.18314
▁오브	-9.18428
▁돈	-9.18456
밖에	-9.18566
▁데뷔	-9.18665
▁2011	-9.187
25	-9.18719
▁우주	-9.18745
▁해결	-9.18775
▁근	-9.18902
▁부족	-9.19255
▁조합	-9.19304
▁일정	-9.1933
라며	-9.1936
숙	-9.19382
▁&	-9.19486
▁이유는	-9.19506
▁부분	-9.19539
버스	-9.19541
움	-9.2001
▁권	-9.20085
▁원작	-9.20193
▁않아	-9.20248
렉	-9.20253
올	-9.20313
틀	-9.20324
▁발생	-9.20327
▁운	-9.20394
▁작중	-9.20485
▁요구	-9.20638
▁사회	-9.20997
자는	-9.21068
과의	-9.21083
▁《	-9.2127
▁음	-9.21326
로서	-9.21405
하려	-9.21448
▁사진	-9.21756
련	-9.21868
▁강한	-9.21878
▁상황에서	-9.21922
라이	-9.21939
▁퀘스트	-9.21975
벨	-9.22334
,000	-9.22371
▁이번	-9.22505
▁위해서	-9.22529
▁가는	-9.22531
▁The	-9.22555
▁후에	-9.22582
▁머리	-9.22627
칸	-9.22666
빈	-9.22885
▁대표	-9.23028
▁들고	-9.23065
▁받는	-9.23129
릭	-9.23133
▁기억	-9.23458
▁암	-9.23599
▁기대	-9.2367
w	-9.23751
되	-9.23819
▁이유로	-9.23885
▁시도	-9.23911
et	-9.2406
▁이제	-9.24129
▁보는	-9.24151
▁취	-9.24347
▁석	-9.24551
레이	-9.24578
▁데미지	-9.24594
▁보이는	-9.24605
g	-9.24654
&	-9.24669
공격	-9.24677
▁발사	-9.2472
캐	-9.24786
▁디자인	-9.24807
수를	-9.25243
새	-9.25268
▁마스터	-9.25271
▁엔딩	-9.25296
▁중앙	-9.25311
▁술	-9.25331
▁특징	-9.25385
대학교	-9.25427
▁판매	-9.25485
-2	-9.25538
취	-9.25602
▁경우는	-9.25726
▁적용	-9.25774
▁찾아	-9.25808
▁성장	-9.25831
되며	-9.25845
▁스스로	-9.25916
▁전용	-9.26077
▁대상	-9.26305
▁받았다	-9.26432
▁방영	-9.26552
셔	-9.26653
▁영어	-9.26735
▁반대	-9.26803
▁절대	-9.26807
극	-9.27007
▁되면	-9.2705
해도	-9.27149
▁진짜	-9.27158
▁여담으로	-9.27302
▁되지	-9.27351
▁하이	-9.27408
ch	-9.2747
▁부활	-9.27512
▁격	-9.2752
폭	-9.27615
▁주는	-9.27677
암	-9.2773
▁결혼	-9.27833
▁획득	-9.27963
▁기존	-9.28006
▁러시아	-9.28091
되었고	-9.28113
▁2000	-9.28114
리를	-9.28129
▁퍼	-9.28165
합니다	-9.28286
이란	-9.28288
▁크	-9.28315
▁가격	-9.28318
▁피해를	-9.2844
되기	-9.28481
▁것에	-9.28533
▁26	-9.28544
x	-9.28602
▁필	-9.28602
▁고려	-9.28606
▁수정	-9.28631
▁대통령	-9.28636
30	-9.28657
▁메인	-9.28688
▁블랙	-9.28722
▁타고	-9.28762
el	-9.28832
▁상황이	-9.28914
▁프로그램	-9.28934
▁밖에	-9.28989
▁참여	-9.29173
▁주변	-9.29294
혁	-9.29586
낸	-9.29613
▁워	-9.29642
▁미션	-9.29645
자의	-9.29653
▁관리	-9.29742
했다는	-9.29761
개의	-9.29796
15	-9.29837
향	-9.2992
▁아들	-9.29926
’	-9.29941
랄	-9.29964
▁특	-9.29986
리그	-9.30178
억	-9.30202
▁못했다	-9.3031
▁조선	-9.30466
▁나중에	-9.30497
필	-9.30528
▁하기	-9.30547
い	-9.30651
자로	-9.30714
▁역할을	-9.30728
▁28	-9.30802
▁묘사	-9.30806
▁흑	-9.30939
게임	-9.3094
람	-9.30994
멘	-9.31006
z	-9.31049
▁나이	-9.31106
▁내려	-9.31125
▁함	-9.31145
▁한편	-9.31164
▁낮은	-9.3137
▁뒤에	-9.31377
▁소리	-9.31515
▁무장	-9.31585
▁피해	-9.31624
▁나머지	-9.31676
▁초반	-9.31737
▁대한민국	-9.31794
us	-9.31849
먼	-9.31853
▁번역	-9.31857
▁출시	-9.31907
▁영향을	-9.31918
▁차지	-9.32055
▁조건	-9.32215
▁봉	-9.32264
▁증	-9.32318
▁교육	-9.32351
견	-9.32435
▁좋지	-9.32438
▁나서	-9.32639
▁남성	-9.32713
▁이미지	-9.3273
▁환	-9.32764
하다가	-9.3282
점을	-9.32857
▁작은	-9.32881
▁27	-9.32914
윤	-9.32991
▁자유	-9.32992
옥	-9.32994
▁회	-9.33026
▁계획	-9.33052
19	-9.33155
▁휴	-9.33336
▁붙	-9.33344
▁번째	-9.3338
0%	-9.33433
택	-9.33434
▁명칭	-9.33467
도록	-9.33609
이라면	-9.33653
침	-9.33682
ン	-9.3377
▁범위	-9.3377
▁반면	-9.3379
▁아니고	-9.33819
▁지금	-9.33912
▁스테이지	-9.33941
▁다이	-9.33953
▁소설	-9.33994
▁세력	-9.33997
하라	-9.34033
▁Z	-9.34044
익	-9.34106
치는	-9.34136
▁제외한	-9.34264
▁덱	-9.3428
탕	-9.34285
나라	-9.34475
▁발표	-9.34482
▁대학	-9.34483
▁중요한	-9.34538
?"	-9.3459
▁정부	-9.34599
▁적을	-9.34609
▁책	-9.34617
딜	-9.3475
▁맨	-9.34791
득	-9.34794
▁만드는	-9.34921
▁난이도	-9.35045
▁벽	-9.3506
▁제국	-9.3509
18	-9.35097
하나	-9.35103
▁결	-9.35166
▁물리	-9.35169
16	-9.35196
▁것과	-9.35214
▁바람에	-9.35219
전을	-9.35222
▁나오	-9.3525
▁완	-9.35336
▁이름이	-9.35422
▁정작	-9.3554
었고	-9.35541
책	-9.3561
▁포함	-9.35661
▁Lv	-9.35692
▁라고	-9.35705
▁부대	-9.35774
▁대부분의	-9.35814
▁대회	-9.35824
카드	-9.35868
▁낙	-9.36013
▁류	-9.36058
전에	-9.36065
▁자세한	-9.36126
▁초기	-9.36135
완	-9.36163
▁기능	-9.36199
▁터	-9.36358
▁분노	-9.36367
스와	-9.36436
▁말한다	-9.36458
▁기간	-9.36487
▁공중	-9.36544
시즌	-9.36757
▁구성	-9.36774
한다는	-9.36874
▁항상	-9.36894
로부터	-9.36899
▁약간	-9.36939
▁만약	-9.36995
▁궁	-9.37155
▁문화	-9.37208
▁않을	-9.3726
▁예상	-9.37302
▁사고	-9.37447
▁애초에	-9.37504
▁내부	-9.37556
▁유명한	-9.37606
▁아래	-9.37626
갑	-9.37711
▁중에	-9.37745
▁m	-9.37915
▁잘못	-9.37956
▁무리	-9.37957
▁방식	-9.3805
ad	-9.38259
▁각종	-9.38331
▁운행	-9.38344
▁특정	-9.3851
▁따로	-9.38536
▁있으면	-9.38579
▁현재는	-9.38587
▁종료	-9.38605
▁출전	-9.38622
알	-9.38688
▁장착	-9.38689
▁아이돌	-9.38945
▁연결	-9.38956
▁없	-9.38963
▁능력을	-9.38981
▁얻을	-9.39114
▁변신	-9.39166
▁표기	-9.39236
라운드	-9.39246
▁라는	-9.39335
▁라이	-9.39481
▁타입	-9.39739
▁행	-9.3998
칭	-9.40013
un	-9.40034
▁읽	-9.40111
▁이유	-9.40117
▁유저	-9.40131
▁다르게	-9.40213
냈다	-9.40218
▁다양한	-9.40246
▁계열	-9.40262
▁직업	-9.40307
▁별로	-9.40316
▁사람은	-9.40317
▁북한	-9.40333
▁향	-9.40412
▁보상	-9.40421
▁위에	-9.40437
▁밤	-9.40577
▁갑자기	-9.40635
▁살아	-9.4069
섭	-9.40788
▁뜻	-9.40789
임을	-9.40791
갔다	-9.40906
지라	-9.40939
▁사실을	-9.41034
▁떠	-9.41037
트를	-9.41105
▁부산	-9.41108
▁참가	-9.41201
.#	-9.41224
명의	-9.41301
▁그는	-9.4133
▁특성	-9.41415
▁s	-9.41438
▁본인이	-9.41444
▁식으로	-9.41488
▁가족	-9.41494
12	-9.41503
」	-9.41536
습니다	-9.41537
▁주소	-9.41594
으니	-9.41722
준다	-9.41823
었던	-9.41917
▁연출	-9.41959
스는	-9.41968
하였고	-9.42029
▁이해	-9.42086
▁짓	-9.42086
!!	-9.42091
▁정치	-9.42188
니까	-9.42202
▁유럽	-9.42205
▁육	-9.42409
▁주요	-9.42455
니아	-9.42615
▁달성	-9.42652
▁못하는	-9.42663
▁대전	-9.42677
버리	-9.42692
is	-9.42733
▁넘	-9.42753
▁나와	-9.42774
▁소모	-9.42778
▁배틀	-9.42805
▁정도의	-9.42877
지고	-9.42934
▁뒷	-9.42983
▁보기	-9.43109
▁빠른	-9.4311
▁제공	-9.43148
▁조직	-9.43223
▁모습	-9.43232
▁예정	-9.43352
▁항	-9.43391
▁낮	-9.43392
▁상태에서	-9.43409
▁존재한다	-9.4352
▁이용해	-9.43805
▁긴	-9.43825
▁잡	-9.43828
▁보니	-9.43932
km	-9.44018
▁아마	-9.44086
▁않게	-9.44102
측	-9.44117
싱	-9.44118
▁있으니	-9.44194
▁듣고	-9.44195
▁준다	-9.44217
▁하였다	-9.4423
▁써	-9.44274
▁삼성	-9.44277
▁케이	-9.44409
▁구조	-9.44495
▁트	-9.44512
es	-9.44603
▁칸	-9.44674
▁}	-9.44772
▁요리	-9.44814
빌	-9.44898
▁콜	-9.44982
▁비교	-9.45113
▁소개	-9.45167
▁에너지	-9.45178
권을	-9.45189
죠	-9.45237
▁슬	-9.45281
st	-9.45352
▁하면서	-9.45469
▁최근	-9.45486
▁충	-9.45491
▁비밀	-9.45499
▁수비	-9.45519
▁TV	-9.45622
▁떠나	-9.45626
▁29	-9.4566
▁다크	-9.45695
랜드	-9.45709
▁그를	-9.4575
▁수록	-9.45756
▁타이	-9.45761
▁취급	-9.45787
▁시전	-9.45836
▁일을	-9.45933
▁두고	-9.46034
▁측	-9.46047
시킨	-9.46062
▁후보	-9.46067
▁동료	-9.46069
▁소녀	-9.4608
▁나타나	-9.46125
▁제목	-9.4614
▁없을	-9.46225
▁드	-9.46257
▁어린	-9.46281
▁제한	-9.46296
상을	-9.464
▁바람	-9.46429
스러운	-9.4643
▁교체	-9.46475
콘	-9.46526
▁축구	-9.46576
▁마음	-9.46585
▁시대	-9.46611
잡	-9.46665
▁넘어	-9.4668
▁유리	-9.46761
지가	-9.46774
▁아무	-9.46808
▁2009	-9.4681
▁60	-9.46876
▁케	-9.46925
▁그가	-9.46936
있	-9.47005
ur	-9.47113
▁학생	-9.47214
40	-9.47296
▁악마	-9.4732
▁제일	-9.47352
▁염	-9.47408
▁발전	-9.4742
▁곳	-9.47605
5%	-9.47743
▁놓	-9.47752
▁‘	-9.47768
ri	-9.4778
특	-9.47875
▁포인트	-9.47889
▁놀	-9.47947
▁오래	-9.47951
▁등으로	-9.47952
▁IP	-9.48083
▁팬들	-9.48089
▁얼굴	-9.48091
▁기체	-9.48109
▁잡아	-9.48204
▁브	-9.48269
▁황제	-9.48285
▁전작	-9.48327
▁기타	-9.48413
▁애니	-9.48463
▁훈련	-9.4848
년부터	-9.48503
▁뉴	-9.48527
▁나올	-9.48619
▁보여주	-9.48696
▁있으나	-9.48737
카와	-9.48738
촌	-9.48807
▁여기에	-9.48841
이므로	-9.4886
▁대체	-9.48866
▁가문	-9.48936
▁시점	-9.48984
버린다	-9.49073
▁이상의	-9.49086
▁싸우	-9.49168
▁무려	-9.49175
혜	-9.49202
대를	-9.49542
▁유명	-9.49579
▁경우에는	-9.4963
▁한정	-9.49991
▁배치	-9.49995
▁게임을	-9.50002
▁링크	-9.50016
▁a	-9.5002
▁사례	-9.50148
▁죽은	-9.50154
▁몰	-9.50208
▁탑	-9.50374
▁시기	-9.50404
▁각성	-9.50438
▁적은	-9.50558
▁혼자	-9.50599
▁종족	-9.50622
▁패치	-9.50838
▁무시	-9.50855
념	-9.50859
▁쓴	-9.50937
▁탈출	-9.51047
▁가까운	-9.51118
이닝	-9.51138
000	-9.5116
핑	-9.5117
▁가면	-9.51193
▁잠시	-9.51209
▁개념	-9.51292
▁운동	-9.51329
▁상당한	-9.51369
▁해야	-9.51379
트로	-9.5147
타로	-9.51474
▁사용한다	-9.51498
럽	-9.51531
▁예를	-9.51645
▁판단	-9.51711
▁병력	-9.51772
▁내가	-9.51791
▁역할	-9.52055
버린	-9.52075
▁아니면	-9.52122
적이	-9.52153
▁월드	-9.52351
▁투수	-9.52446
▁있다면	-9.52512
▁더불어	-9.5261
▁불러	-9.52651
▁목적	-9.52666
▁던전	-9.52708
쳤다	-9.52716
▁능력치	-9.52744
▁푸	-9.52783
▁공연	-9.52814
▁차이가	-9.52823
▁여기	-9.52923
▁초반에	-9.52925
▁지상	-9.52934
▁패턴	-9.52967
▁퇴	-9.52982
▁그림	-9.53014
▁후반	-9.5307
됐다	-9.53102
14	-9.53118
한다고	-9.53181
▁출	-9.53234
▁배경	-9.53292
▁죽	-9.53346
▁과정에서	-9.53368
▁이게	-9.53389
▁해외	-9.53444
쓰	-9.5345
▁엔진	-9.53458
▁작가	-9.53471
▁없다는	-9.53481
▁위험	-9.53487
▁있	-9.53542
하려고	-9.53603
▁무대	-9.53604
▁건담	-9.53615
v	-9.53621
▁경쟁	-9.53677
으로서	-9.53685
▁지나	-9.53719
▁등장한	-9.53827
▁기본적으로	-9.53841
대학	-9.53914
센	-9.53939
야마	-9.53945
나는	-9.5398
했기	-9.53999
사의	-9.5403
▁뽑	-9.54034
헌	-9.54042
▁없다고	-9.54076
60	-9.542
▁했으나	-9.54265
▁듯하다	-9.54271
▁전사	-9.5431
액	-9.54339
톤	-9.54378
▁야구	-9.54459
굴	-9.54477
▁돌아가	-9.5449
힌	-9.54501
▁Y	-9.54635
▁무슨	-9.54647
죽	-9.54653
▁시작했다	-9.54667
▁전차	-9.547
착	-9.54746
이니	-9.54787
▁딜	-9.54834
▁집중	-9.54835
▁실력	-9.54902
▁검은	-9.54922
▁이야기를	-9.5507
▁말에	-9.55211
17	-9.55267
▁보호	-9.55331
능	-9.55453
▁근접	-9.55545
ic	-9.55589
▁2008	-9.55599
큐	-9.55658
▁캐	-9.55793
%	-9.5583
▁인식	-9.5589
▁HP	-9.55915
텔	-9.56006
▁최고의	-9.56034
▁오르	-9.56052
좌	-9.56072
▁기계	-9.56098
▁본래	-9.56102
튼	-9.56119
팔	-9.56247
쇼	-9.56251
▁담	-9.56282
동안	-9.56303
▁대화	-9.56357
▁장소	-9.56391
함을	-9.56394
▁나는	-9.56482
▁장면	-9.56499
▁필요한	-9.56512
시킬	-9.56568
▁헬	-9.56598
▁이후로	-9.5661
▁불리	-9.56631
▁얘기	-9.56691
레스	-9.56749
뿐	-9.56764
▁보이	-9.56797
라서	-9.56822
▁것이라고	-9.56855
01	-9.56871
13	-9.56943
▁조사	-9.57011
가지	-9.57045
돈	-9.57073
▁구간	-9.57081
▁불가능	-9.57263
▁얼마	-9.57315
▁알아	-9.57324
욱	-9.5743
럼	-9.57476
▁가끔	-9.57489
능력	-9.57491
▁면	-9.57557
인이	-9.57572
▁알게	-9.57683
▁빠르게	-9.57694
▁단어	-9.57827
▁업데이트	-9.57857
▁내에서	-9.57916
입니다	-9.57949
존	-9.58172
▁의외로	-9.58228
점이	-9.58239
▁좋아하는	-9.58245
▁웃	-9.58261
협	-9.58344
▁봐도	-9.5836
징	-9.58434
▁KBS	-9.58454
▁수상	-9.58461
▁건설	-9.58489
▁다리	-9.58557
▁마리	-9.5857
들에	-9.58576
▁종류	-9.58621
▁f	-9.58677
▁맥	-9.58711
▁꿈	-9.58872
▁보아	-9.58875
트리	-9.5894
오는	-9.58986
▁31	-9.59086
마리	-9.59121
▁이름은	-9.59135
▁자체는	-9.59148
렬	-9.59151
▁빅	-9.59182
▁좌	-9.59296
▁그야말로	-9.59316
에게는	-9.59365
화를	-9.59448
▁미래	-9.59453
홍	-9.59581
▁지지	-9.59583
▁계약	-9.59588
▁군사	-9.59592
▁제품	-9.59598
▁수가	-9.59614
▁국제	-9.59627
개를	-9.59634
▁보여준다	-9.59639
▁지속	-9.59661
▁농	-9.59685
▁스타일	-9.5969
▁아르	-9.59756
▁작전	-9.59757
학과	-9.59766
▁색	-9.59771
▁없지만	-9.59855
▁주문	-9.59902
▁노력	-9.59916
▁찍	-9.59947
▁빌	-9.59974
▁않으면	-9.5998
닉	-9.6004
▁새로	-9.60122
▁워낙	-9.60148
▁머	-9.60192
▁앞에	-9.60299
시킨다	-9.60301
효	-9.60388
▁쓰고	-9.60398
▁갖고	-9.60412
▁씨	-9.60458
▁좀비	-9.6046
▁시험	-9.60492
▁폐	-9.6051
▁장면이	-9.60576
▁지방	-9.60591
▁표시	-9.60672
스케	-9.6074
세기	-9.6076
▁그룹	-9.60768
▁일본의	-9.60775
▁있었고	-9.60874
▁없어서	-9.60935
▁일어나	-9.60945
▁벨	-9.60961
▁지난	-9.61025
시마	-9.61036
▁접근	-9.61175
▁나무	-9.61179
▁때마다	-9.61203
▁제외하면	-9.61328
▁사기	-9.614
다면	-9.61407
▁올려	-9.61418
원이	-9.61422
드는	-9.61481
당한	-9.61569
▁이건	-9.61606
낼	-9.61648
▁덕	-9.61674
▁사람을	-9.61763
세트	-9.61794
▁p	-9.61812
▁직후	-9.61824
스크	-9.61837
▁사이에	-9.6184
컬	-9.61916
▁위의	-9.6192
ra	-9.6192
방송	-9.61935
▁안에	-9.62052
▁하늘	-9.6206
▁전국	-9.62066
▁받을	-9.62199
▁유일하게	-9.62226
▁어디	-9.62284
시아	-9.62308
▁솔	-9.62339
▁정리	-9.62364
▁굳이	-9.6242
▁되는데	-9.6247
▁수행	-9.62553
척	-9.62569
더라도	-9.62575
모토	-9.6259
▁서비스	-9.62603
▁유일한	-9.62682
킬	-9.62703
▁다르다	-9.62711
▁늘	-9.62711
▁생긴	-9.62733
▁켄	-9.62784
▁등장인물	-9.62859
감을	-9.62868
므로	-9.62918
▁있었는데	-9.62934
▁쪽	-9.62934
▁칠	-9.62953
텐	-9.62982
군의	-9.63029
80	-9.6305
▁다소	-9.6309
▁그녀의	-9.631
▁형태	-9.63102
엽	-9.63119
▁업그레이드	-9.63215
▁성우는	-9.63242
▁자리를	-9.63295
힐	-9.63308
▁부여	-9.63326
▁세트	-9.63342
때문에	-9.63391
▁끝에	-9.6344
버렸다	-9.63444
▁점프	-9.6353
▁땅	-9.63555
▁동생	-9.63556
▁고정	-9.63559
▁경기에서	-9.63643
▁앤	-9.6373
▁연속	-9.63736
▁아내	-9.63753
▁남은	-9.63777
▁국민	-9.63797
05	-9.63806
▁뛰어난	-9.63908
▁높	-9.63983
▁c	-9.64093
치고	-9.64215
▁못한다	-9.64221
▁생각하면	-9.64393
▁상태로	-9.64464
▁마무리	-9.64479
▁했던	-9.6448
▁챔피언	-9.64537
▁홈	-9.64537
48	-9.64574
▁반드시	-9.64608
되었으며	-9.64711
▁착	-9.64764
▁걸어	-9.64782
▁2007	-9.64795
탁	-9.64798
▁몇몇	-9.64837
▁어려운	-9.64843
▁음식	-9.64894
▁완성	-9.64896
마저	-9.64937
▁반대로	-9.64987
▁셈	-9.65002
▁변화	-9.65015
21	-9.65018
▁그걸	-9.65085
찰	-9.65093
ro	-9.65115
▁방향	-9.6512
▁곧	-9.6516
월에	-9.65184
▁겸	-9.65203
▁했는데	-9.6521
▁복귀	-9.65354
▁중에서	-9.65429
▁같	-9.65437
▁걱정	-9.65459
▁싱글	-9.65459
▁졸업	-9.65466
▁많아	-9.6548
▁종종	-9.65585
흥	-9.65626
▁사이트	-9.65628
였고	-9.65636
염	-9.65649
▁효과를	-9.65689
▁마나	-9.658
느	-9.65804
▁거기에	-9.65828
으	-9.65844
▁이적	-9.65955
기사	-9.65963
▁지하	-9.65964
었	-9.65982
▁점점	-9.66042
▁없기	-9.66089
▁전개	-9.66106
▁돈을	-9.66116
▁유저들	-9.66271
▁이하	-9.6635
대가	-9.66356
▁바이	-9.66406
▁이걸	-9.66411
김	-9.66442
▁제거	-9.66459
▁죽어	-9.66473
▁빼	-9.66505
관계	-9.66506
▁레드	-9.6651
▁도중	-9.66641
년에는	-9.66642
am	-9.66654
▁메이	-9.66691
▁전설	-9.66709
▁나오지	-9.66753
▁포지션	-9.66783
▁확정	-9.668
들어	-9.66891
▁핵	-9.66984
킨	-9.67027
치를	-9.67054
▁독립	-9.67088
▁쌓	-9.67106
시키고	-9.67113
밍	-9.67373
▁언	-9.67385
▁마법사	-9.67455
벽	-9.6748
▁어렵다	-9.67485
▁구매	-9.67496
▁합류	-9.67506
으면서	-9.67521
▁「	-9.67541
▁포켓몬	-9.67573
버리는	-9.67581
▁파티	-9.6759
▁앞에서	-9.67595
▁가서	-9.67665
▁쉬	-9.67675
▁딱	-9.6778
▁자신	-9.67831
▁타격	-9.67906
▁생활	-9.68026
용으로	-9.68144
J	-9.68177
▁방어력	-9.68203
얼	-9.68223
▁사업	-9.6827
▁점을	-9.68298
▁묻	-9.68317
▁받	-9.68324
▁무조건	-9.68417
▁꽃	-9.68432
▁80	-9.68544
하므로	-9.68555
자리	-9.68565
▁인터넷	-9.68565
이라도	-9.68588
답게	-9.68634
무기	-9.68684
▁탓에	-9.68698
▁루트	-9.68762
릿	-9.69034
▁끌어	-9.69046
▁가수	-9.69107
▁촬영	-9.69176
▁받는다	-9.69223
▁뇌	-9.69236
▁도입	-9.69274
▁연재	-9.69328
화가	-9.69332
▁모른다	-9.6938
24	-9.69387
▁화면	-9.69404
▁해군	-9.69468
▁200	-9.6947
프트	-9.69479
▁to	-9.69527
▁빨리	-9.6962
▁생존	-9.69642
▁싸	-9.69643
▁로봇	-9.69655
▁라이브	-9.69669
▁아무리	-9.69678
▁치료	-9.69699
▁올리	-9.69709
죄	-9.69818
▁특유	-9.69821
▁순위	-9.69884
더니	-9.69958
▁b	-9.70014
▁vs	-9.70063
냐고	-9.70079
▁w	-9.70086
수록	-9.70087
▁전략	-9.70145
▁공간	-9.70157
▁입장	-9.7017
▁능력이	-9.70213
▁방법	-9.70213
▁정식	-9.70243
▁거리	-9.70288
되면	-9.70387
”	-9.70412
음을	-9.70413
▁없음	-9.70469
▁봉인	-9.70503
냈	-9.70529
▁전기	-9.70544
▁90	-9.70561
Z	-9.70617
ol	-9.70622
ir	-9.70646
cm	-9.70681
대의	-9.7072
as	-9.70726
な	-9.70784
답	-9.70792
빛	-9.70827
트가	-9.70846
▁맞아	-9.70905
쳤	-9.70908
▁프	-9.71049
▁실험	-9.71089
▁삭제	-9.7111
▁교수	-9.71133
▁지배	-9.71228
ter	-9.71297
▁주의	-9.7131
▁입고	-9.71355
▁필드	-9.71368
▁분위기	-9.71574
▁2006	-9.71597
무라	-9.71609
▁숙	-9.71627
▁턴	-9.71771
▁충분히	-9.7178
둔	-9.71811
▁물건	-9.71818
▁목표	-9.71888
AR	-9.71894
▁빠져	-9.719
▁자원	-9.71924
칼	-9.72073
▁돌아	-9.72074
탑	-9.72097
▁탈락	-9.72126
▁린	-9.72153
▁시장	-9.72197
고등학교	-9.72209
▁수많은	-9.72261
▁처음으로	-9.72287
▁분류	-9.72294
▁전문	-9.72306
09	-9.72412
▁외에도	-9.72417
▁진화	-9.72417
▁되었고	-9.72442
▁꼭	-9.72488
잔	-9.72491
자와	-9.7255
없는	-9.72553
▁얼	-9.72592
▁빛	-9.72593
▁우선	-9.72686
▁요소	-9.727
▁말하는	-9.72854
▁부탁	-9.72892
맞	-9.72918
▁뛰	-9.72944
▁안전	-9.72992
▁조작	-9.73114
▁것처럼	-9.73134
▁동물	-9.73149
▁엄	-9.73202
▁요청	-9.7321
ut	-9.73212
▁뜨	-9.73276
▁Re	-9.73354
▁이기	-9.73368
▁있지	-9.73481
▁앞으로	-9.73513
70	-9.73621
▁시간을	-9.73709
08	-9.73717
단계	-9.7372
▁사이에서	-9.73744
치가	-9.73801
・	-9.74036
푸	-9.74055
▁듯한	-9.74156
▁블루	-9.74318
▁사격	-9.74334
j	-9.74359
▁끊	-9.74362
id	-9.74372
육	-9.74399
▁대결	-9.74409
▁서술	-9.74417
끼	-9.74419
났	-9.74449
▁효과가	-9.74596
닝	-9.74612
▁라인	-9.74619
▁조종	-9.74655
る	-9.7479
▁업	-9.74841
까지는	-9.7485
하도록	-9.74854
▁멤버들	-9.7489
▁회피	-9.74907
▁맛	-9.74935
▁거부	-9.7497
딘	-9.74971
만원	-9.74983
▁이름으로	-9.75042
07	-9.75049
하려는	-9.75151
▁의하면	-9.75209
▁쳐	-9.75251
▁뻔	-9.75272
▁올라가	-9.75293
학교	-9.75304
▁엔	-9.75313
낸다	-9.75323
▁영혼	-9.75417
▁선수들	-9.7544
부터는	-9.75469
▁개그	-9.7552
▁리더	-9.75524
▁타카	-9.75563
▁않지만	-9.75579
▁중심	-9.7559
▁외모	-9.7576
멸	-9.75882
▁굴	-9.75896
젠	-9.75896
▁있었지만	-9.76045
▁아니지만	-9.76097
▁꽤나	-9.76128
였지만	-9.76159
▁“	-9.76256
했	-9.76258
il	-9.76306
▁인사	-9.76323
간다	-9.76361
▁경제	-9.76406
개월	-9.76494
▁당신	-9.76562
▁지정	-9.76585
▁힘든	-9.76596
▁도전	-9.76679
폰	-9.76719
▁희생	-9.76723
▁범	-9.76753
▁나름	-9.7677
해진다	-9.76863
▁비롯한	-9.76943
▁저항	-9.7699
▁마찬가지	-9.77017
▁내용은	-9.77061
▁크기	-9.77122
왔다	-9.77123
▁얼마나	-9.77129
호선	-9.77134
군이	-9.77219
▁성능	-9.7722
사키	-9.77227
▁미니	-9.77298
▁부르	-9.77353
풀	-9.77368
▁인한	-9.77388
해진	-9.77395
짓	-9.7743
▁그린	-9.77434
▁평균	-9.7744
▁척	-9.77468
혈	-9.77471
▁바다	-9.77505
놓	-9.77509
▁주고	-9.77537
세를	-9.77614
▁공포	-9.77707
▁경기를	-9.77761
괴	-9.77763
▁뭔가	-9.77876
▁in	-9.77934
▁위치한	-9.78024
~20	-9.78025
▁광고	-9.78029
▁단순히	-9.78048
▁점이	-9.78079
전쟁	-9.78116
▁여행	-9.78181
▁냉	-9.78185
▁자연	-9.78209
▁등급	-9.78218
▁지적	-9.78228
에게서	-9.78233
22	-9.78259
▁누구	-9.78294
▁추측	-9.78296
▁힘들	-9.78296
였으나	-9.78416
▁사람들은	-9.78418
▁시점에서	-9.78423
▁동일	-9.78453
▁하여	-9.78458
▁No	-9.78546
▁신경	-9.78559
▁장갑	-9.78589
▁의심	-9.78612
▁전력	-9.78627
물을	-9.78638
▁롯데	-9.78693
▁부분이	-9.78703
▁로마	-9.78714
▁LG	-9.78726
정도	-9.78755
35	-9.7887
▁인천	-9.78924
▁요시	-9.78968
▁비행	-9.79012
▁도로	-9.79068
시켰다	-9.79068
시대	-9.79128
사와	-9.79131
▁관련된	-9.79148
▁유튜브	-9.79219
▁달려	-9.79288
▁먹고	-9.79385
교육	-9.79398
▁끝내	-9.79463
▁견	-9.79478
▁돌려	-9.79516
드를	-9.7957
▁특성상	-9.79573
춘	-9.79575
해졌다	-9.79641
▁관심	-9.79696
▁숨	-9.79707
▁운용	-9.79732
욕	-9.79742
▁MBC	-9.7977
이면	-9.79825
구를	-9.79825
▁덤	-9.7986
-3	-9.79865
▁고대	-9.79871
▁맞는	-9.7988
▁비용	-9.79997
압	-9.80013
▁끝나	-9.80074
▁옵션	-9.80128
▁바뀌	-9.80142
▁의사	-9.80212
콜	-9.80283
▁대형	-9.8037
▁카이	-9.80443
▁월드컵	-9.80554
▁협	-9.80555
▁도쿄	-9.80639
폐	-9.80679
▁모르는	-9.807
▁가운데	-9.80701
▁환경	-9.80703
▁일러스트	-9.80738
틴	-9.80749
▁모습으로	-9.80764
▁70	-9.80783
▁그저	-9.80839
친다	-9.80842
률	-9.80895
▁개조	-9.80941
▁의식	-9.80973
▁힘들다	-9.80983
▁데미지를	-9.80983
▁공주	-9.80999
ot	-9.81042
젤	-9.81114
▁활	-9.81134
허	-9.81265
▁정체	-9.81281
▁군대	-9.81373
▁말았다	-9.81401
니다	-9.81458
위원회	-9.8151
위로	-9.81512
▁픽	-9.81514
빙	-9.81515
하니	-9.81517
▁투입	-9.81535
▁사냥	-9.81547
▁내리	-9.81548
▁기업	-9.81591
주고	-9.81597
▁폭탄	-9.816
었는데	-9.81627
▁받지	-9.81672
▁통합	-9.81682
▁SK	-9.81785
▁쓴다	-9.81842
▁카드를	-9.81903
▁발음	-9.8194
▁앞서	-9.81951
드가	-9.82061
▁공략	-9.8211
트라	-9.82111
▁선거	-9.82113
시에	-9.82149
균	-9.82185
자들	-9.8232
▁구분	-9.82336
▁어느정도	-9.8235
▁프로젝트	-9.82375
▁생성	-9.82405
▁옥	-9.82476
90	-9.82491
→	-9.82519
져서	-9.82535
▁하나로	-9.82595
맛	-9.82607
▁센	-9.82695
▁저격	-9.82732
▁부르는	-9.8275
▁사람들	-9.82758
갤	-9.82761
▁의원	-9.82799
▁보너스	-9.82818
빠	-9.8286
▁이탈리아	-9.82876
▁셀	-9.8295
▁마치	-9.82979
03	-9.82982
▁언론	-9.83108
▁팀의	-9.83119
▁체력이	-9.83124
프로	-9.83134
▁미사일	-9.83153
▁지금은	-9.83181
▁버프	-9.83182
▁충격	-9.83195
소리	-9.83238
▁홀	-9.83252
▁킹	-9.83319
▁영입	-9.83414
▁2020	-9.83423
▁때까지	-9.83431
23	-9.83511
량이	-9.8353
▁위협	-9.83538
▁보였다	-9.83613
▁포기	-9.83776
▁밝혔다	-9.83779
▁폴	-9.83928
▁크다	-9.84031
컨	-9.8405
지로	-9.8408
▁하게	-9.84084
▁점수	-9.84141
놓고	-9.84204
▁다니	-9.84252
▁최소	-9.8431
▁바꾸	-9.84317
▁2004	-9.8433
머리	-9.8434
읍	-9.84486
▁500	-9.84491
▁말고	-9.84554
▁되기	-9.84577
ia	-9.84585
▁학생들	-9.84597
▁마르	-9.84658
둥	-9.84725
▁대해서	-9.84762
▁휘	-9.84775
스키	-9.84906
▁Ch	-9.84925
☆	-9.84979
▁대미지	-9.85016
어야	-9.85032
▁h	-9.85053
▁기존의	-9.85082
▁컨셉	-9.85086
▁간다	-9.85103
▁싶어	-9.85109
짐	-9.85157
▁완전	-9.85168
▁서버	-9.85185
▁반응	-9.85189
04	-9.85206
▁콤보	-9.85211
▁행위	-9.85214
......	-9.85226
▁중요	-9.85227
▁살인	-9.85238
▁츠	-9.85262
세가	-9.85331
▁나왔	-9.8541
▁2005	-9.85446
▁해석	-9.85448
28	-9.85452
▁녹	-9.85473
▁마이	-9.85488
la	-9.85489
한다면	-9.85494
▁아키	-9.85638
▁손을	-9.85675
▁부상	-9.85722
▁생기	-9.85739
▁발언	-9.85793
비아	-9.85909
▁떨어지	-9.8594
스킬	-9.85993
▁답	-9.85999
▁이것	-9.86064
묘	-9.86083
に	-9.86129
06	-9.86163
▁습격	-9.86212
▁보여	-9.86216
▁확실히	-9.8624
▁미리	-9.86288
▁반복	-9.86348
▁와중에	-9.86404
로스	-9.86449
▁과학	-9.86461
▁주인	-9.86484
▁오리지널	-9.86495
▁100%	-9.86518
롭	-9.86527
▁있었으나	-9.86551
▁뒤로	-9.86578
▁시작한다	-9.86588
▁제압	-9.86632
꾼	-9.86684
▁옆	-9.86705
▁관한	-9.86747
▁빠지	-9.86828
▁점은	-9.86934
토리	-9.86938
▁지켜	-9.86944
all	-9.86948
▁괴물	-9.87002
▁대응	-9.87022
라인	-9.87055
▁롤	-9.87077
것이	-9.87115
▁32	-9.87126
▁나오고	-9.8717
받은	-9.872
▁만다	-9.87202
▁비난	-9.87215
▁추천	-9.87216
내는	-9.87222
▁평범한	-9.87228
벤	-9.87278
틱	-9.87286
▁만들었다	-9.87377
티어	-9.8741
렛	-9.87423
▁본인은	-9.87433
^^	-9.87496
버리고	-9.87544
▁and	-9.87545
▁진입	-9.87557
널	-9.87583
▁숫자	-9.876
▁최초로	-9.87654
명은	-9.87719
▁소재	-9.87762
▁필수	-9.87763
쯤	-9.87792
자들이	-9.87797
ow	-9.87808
▁끼	-9.87813
기술	-9.87816
▁가정	-9.87856
▁응	-9.87886
▁죄	-9.87911
▁많	-9.87918
▁경험	-9.87926
▁목소리	-9.87988
화에서는	-9.88014
▁녀석	-9.88015
니스	-9.88041
정을	-9.88063
▁골드	-9.88066
▁축	-9.88077
▁단점	-9.88164
ᆞ	-9.88172
▁했고	-9.8818
지역	-9.88246
하긴	-9.88258
▁상대방	-9.8826
▁눈에	-9.88282
▁보조	-9.88284
▁때도	-9.88322
▁금지	-9.88326
라가	-9.88337
▁약점	-9.88343
▁소년	-9.88354
▁재료	-9.88408
▁헌	-9.88418
▁공동	-9.88443
기관	-9.88454
#	-9.88489
▁당장	-9.88498
▁FC	-9.88519
들로	-9.88561
▁PC	-9.88578
빵	-9.88596
제를	-9.88617
▁선언	-9.88671
▁몸을	-9.8868
대는	-9.88681
▁숲	-9.88683
▁전자	-9.88693
▁작업	-9.88696
츠키	-9.88703
으므로	-9.88718
▁대구	-9.88771
겠다고	-9.88787
기의	-9.88803
▁딱히	-9.88818
▁+1	-9.8883
▁이전에	-9.88856
▁쌍	-9.88879
se	-9.88909
▁점에서	-9.88936
▁힐	-9.88948
드의	-9.88972
▁않기	-9.88986
엄	-9.89148
홀	-9.89201
여서	-9.89285
ん	-9.89459
▁전원	-9.89464
됨	-9.89543
▁통과	-9.89546
▁한계	-9.89546
▁논란	-9.89581
▁인구	-9.89615
▁2002	-9.8965
▁히로	-9.89683
▁행성	-9.89708
▁기념	-9.89709
따	-9.8974
장으로	-9.89759
▁함정	-9.89789
▁시설	-9.89829
드라	-9.89848
▁대비	-9.8986
▁상황을	-9.89975
▁근데	-9.89986
▁넣어	-9.90004
덴	-9.90039
▁밥	-9.90098
▁대표적인	-9.90116
、	-9.90171
▁대놓고	-9.9018
▁지휘	-9.90198
▁자신들	-9.90288
이었고	-9.90338
논	-9.90382
만으로	-9.90412
▁제외	-9.90424
자인	-9.90445
장의	-9.90462
잉	-9.90483
짜	-9.90486
우는	-9.90534
▁서브	-9.90552
lo	-9.90675
▁행사	-9.90702
리온	-9.90707
어가	-9.9072
났다	-9.90727
려는	-9.9074
롱	-9.90803
▁밀리	-9.90811
었지만	-9.90863
27	-9.90863
▁자신은	-9.90902
▁흡수	-9.90935
장에서	-9.90936
▁자동	-9.90986
셀	-9.91008
ly	-9.91015
▁되면서	-9.91048
ス	-9.911
웨이	-9.91115
▁한국어	-9.91132
스티	-9.91178
▁꼬	-9.91242
받	-9.91256
▁35	-9.91307
▁엄청나게	-9.91316
▁적의	-9.91392
▁상위	-9.91396
▁연장	-9.91479
▁죽을	-9.91499
▁아이들	-9.91511
리고	-9.91536
기와	-9.91612
겠지만	-9.91646
▁컴퓨터	-9.91663
▁개선	-9.91682
▁히트	-9.91787
▁대해서는	-9.91797
▁일반적인	-9.91801
세이	-9.91846
▁열린	-9.9187
겼다	-9.91948
▁뿐만	-9.91954
▁의문	-9.91955
이었으나	-9.91971
op	-9.91972
▁부른다	-9.9208
は	-9.92127
쉽	-9.92147
▁인류	-9.92169
ル	-9.92193
▁x	-9.92213
▁배신	-9.92331
▁분리	-9.92398
는지	-9.92417
▁남편	-9.92422
▁자신에게	-9.92428
▁행정	-9.92448
▁종교	-9.92457
▁점령	-9.92464
▁논란이	-9.92473
▁사과	-9.92476
▁비교적	-9.92485
감이	-9.92486
▁In	-9.92491
로우	-9.92564
▁확보	-9.92618
같이	-9.92657
▁중반	-9.92667
▁표정	-9.927
▁뉴스	-9.92728
ER	-9.9275
▁아는	-9.92768
▁원거리	-9.9279
선을	-9.92802
▁이유가	-9.9285
▁형제	-9.92858
▁판정	-9.92868
▁선정	-9.92891
속도	-9.92914
▁중간	-9.92918
▁싸움	-9.92933
▁수밖에	-9.9297
▁전술	-9.92971
▁착용	-9.92995
▁바꿔	-9.93082
만이	-9.93112
▁부정	-9.93118
▁필요하다	-9.93126
하다는	-9.93135
▁개봉	-9.93307
▁겨우	-9.93339
▁인도	-9.93341
▁대답	-9.93357
▁소련	-9.93358
▁확률로	-9.9336
몽	-9.93407
▁밴드	-9.93448
▁저주	-9.93448
▁가사	-9.93458
▁d	-9.9346
:00	-9.93486
26	-9.93493
▁인기가	-9.93528
응	-9.93563
▁명령	-9.9359
▁에이	-9.93606
▁도움을	-9.9362
▁·	-9.93653
▁가게	-9.93682
▁엄마	-9.93682
▁사상	-9.93685
▁남아	-9.93688
▁특별	-9.93722
▁좋	-9.93737
어로	-9.93794
▁박사	-9.93829
▁사람의	-9.93856
▁둔	-9.9389
▁팀이	-9.9392
▁원정	-9.93931
▁가치	-9.93947
▁보다	-9.9395
▁연습	-9.94013
▁맞고	-9.94044
ay	-9.94078
하다고	-9.94121
▁마음을	-9.94122
▁전통	-9.94246
롤	-9.94265
비를	-9.94282
하러	-9.94287
할때	-9.94324
▁몰아	-9.94338
▁짜	-9.94362
▁얻어	-9.94378
▁왼쪽	-9.94386
▁주력	-9.94393
▁도착	-9.94411
리에	-9.94442
▁의지	-9.94451
▁캐릭터가	-9.94464
▁St	-9.94484
▁손에	-9.94516
▁수치	-9.94526
▁이용한	-9.94539
지에	-9.94546
임에도	-9.94572
▁해제	-9.94602
▁제안	-9.94643
▁작성	-9.94658
일부터	-9.94658
▁언어	-9.94784
▁나이트	-9.94816
▁분명	-9.9483
▁자리	-9.94859
▁초대	-9.9486
▁등등	-9.94894
▁옷	-9.94896
▁타이틀	-9.94905
▁시나리오	-9.94958
た	-9.94995
ation	-9.95035
▁확률	-9.95037
▁잠깐	-9.95096
냥	-9.95126
▁데스	-9.9516
▁희	-9.95199
▁덜	-9.95204
▁한다는	-9.95246
에겐	-9.95263
쟁	-9.95296
イ	-9.95352
▁십	-9.95352
▁아무래도	-9.95357
▁아카	-9.95401
▁알려져	-9.95423
29	-9.95438
▁사건이	-9.95467
▁연합	-9.95499
▁더블	-9.95502
▁거대	-9.95642
▁선물	-9.95643
▁방문	-9.9565
상태	-9.95658
▁방해	-9.95688
▁최초의	-9.95744
놈	-9.95772
▁솔로	-9.95795
▁육군	-9.95885
▁혈	-9.95892
▁맡	-9.95961
보면	-9.9598
▁n	-9.95998
▁문제를	-9.96016
▁들어서	-9.96019
▁구단	-9.9604
▁득점	-9.96055
▁가져	-9.96062
te	-9.96111
▁바뀌었다	-9.96126
비가	-9.96159
값	-9.96184
만을	-9.9619
▁걸로	-9.96255
▁복수	-9.96291
몰	-9.96297
▁거대한	-9.9632
으로부터	-9.96357
부대	-9.96381
▁맞추	-9.96388
し	-9.96507
만한	-9.96509
▁상대가	-9.9651
▁에이스	-9.96527
500	-9.96541
▁클	-9.96563
활	-9.96566
AN	-9.96576
속성	-9.96705
}	-9.96874
▁정상	-9.96891
미가	-9.96933
▁완료	-9.96947
ion	-9.97005
▁맞춰	-9.97056
▁높이	-9.97099
▁보여주는	-9.97119
▁멸망	-9.97152
에만	-9.97153
리안	-9.97221
_	-9.97268
▁채널	-9.97285
▁익	-9.97328
원을	-9.97345
십	-9.97366
▁보병	-9.97381
▁설립	-9.97418
▁캐릭터들	-9.97441
시로	-9.97449
か	-9.97549
▁잡고	-9.97661
▁만들어진	-9.97733
▁만한	-9.97738
▁내용이	-9.97748
TV	-9.97761
▁필살기	-9.97826
▁300	-9.97845
▁살해	-9.979
▁장기	-9.98011
▁설계	-9.98041
▁위에서	-9.98056
▁개최	-9.98075
▁정규	-9.98083
▁사정	-9.98096
▁크로	-9.98096
▁벤	-9.98099
▁스페인	-9.98144
▁타이밍	-9.98155
수는	-9.98166
륜	-9.98189
▁대중	-9.98194
▁단계	-9.98206
▁EX	-9.98235
▁다르	-9.9824
▁별명	-9.98244
▁이야기가	-9.98246
▁꺼	-9.98273
▁논	-9.98359
▁조정	-9.98365
▁엄청	-9.98373
시장	-9.98378
▁적에게	-9.98384
▁그러	-9.984
웅	-9.9843
200	-9.98497
▁\	-9.98516
느냐	-9.98574
▁공부	-9.98576
▁지금까지	-9.98577
▁성향	-9.98591
▁임무	-9.98629
45	-9.98715
▁등에	-9.98721
▁생명	-9.98739
콤	-9.98752
줬	-9.98771
▁고양이	-9.98818
▁추가된	-9.98864
▁연주	-9.98899
▁빠	-9.98928
라스	-9.98967
뜨	-9.98968
▁넘어가	-9.99
이긴	-9.99012
▁길이	-9.99022
놓은	-9.99041
▁끝까지	-9.99091
▁오오	-9.99095
어를	-9.99126
ent	-9.99138
픽	-9.99143
▁이루	-9.99183
듯이	-9.99188
im	-9.99194
▁은퇴	-9.99208
시키	-9.99244
▁보컬	-9.99312
▁맺	-9.99333
um	-9.99367
▁작중에서	-9.99442
▁안타	-9.99442
칙	-9.99456
랜	-9.99472
▁시체	-9.99492
▁효	-9.99493
▁힘이	-9.99543
했는지	-9.9955
▁원래는	-9.99629
★	-9.99711
▁SBS	-9.99732
▁홈페이지	-9.99754
▁황금	-9.99757
았	-9.99776
▁보이지	-9.99801
센터	-9.99843
▁끝난	-9.9985
▁무한	-9.9985
▁다음과	-9.99877
▁오른쪽	-9.99897
펜	-9.99912
▁생각해	-9.99923
▁그때	-9.99923
대회	-9.99955
▁2003	-10.0001
▁책임	-10.0002
드로	-10.0003
▁지도	-10.0007
▁게임이	-10.0011
▁원인	-10.0011
▁이들은	-10.0015
이야	-10.0021
▁왕국	-10.0021
이라서	-10.0026
데다	-10.0036
▁밝혀	-10.0036
▁자료	-10.0036
▁세계관	-10.0038
▁생겨	-10.004
▁온갖	-10.004
삭	-10.0045
▁투표	-10.0046
롯	-10.0047
년간	-10.005
▁쿨타임	-10.005
▁견제	-10.0051
55	-10.0051
▁불명	-10.0057
▁부모	-10.0058
▁케이스	-10.0063
되었던	-10.0065
▁능	-10.0067
▁않았	-10.0068
러스	-10.007
수도	-10.0073
と	-10.0082
▁소울	-10.0086
う	-10.0096
▁곳이	-10.01
째	-10.0116
▁사장	-10.0116
▁따른	-10.0117
▁알리	-10.0118
▁확장	-10.0118
▁도망	-10.012
▁침	-10.0129
▁유키	-10.013
▁AP	-10.0131
▁의도	-10.0135
▁붉은	-10.0135
였는데	-10.0136
▁제로	-10.0137
▁포함한	-10.0138
▁병원	-10.0138
▁짧은	-10.0141
▁흔히	-10.0142
루스	-10.0144
▁미국의	-10.0144
▁필요가	-10.0147
kg	-10.0149
▁일본어	-10.0156
▁갤러리	-10.0158
▁집단	-10.0159
▁돌아오	-10.016
▁허용	-10.0161
ig	-10.0165
디아	-10.0169
하였으나	-10.0173
문을	-10.0175
흐	-10.0176
▁앙	-10.0178
▁못해	-10.0181
인지라	-10.0182
▁대장	-10.0183
▁1000	-10.0189
▁모아	-10.019
▁있었	-10.0191
년까지	-10.0192
▁코너	-10.0193
▁최대한	-10.0195
▁자살	-10.0196
▁타임	-10.0198
▁처음에는	-10.0201
즈의	-10.0203
▁사는	-10.0204
▁밀려	-10.0205
▁상황에	-10.0207
li	-10.0212
전이	-10.0218
▁집에	-10.0219
▁전환	-10.0219
▁암살	-10.0222
▁속에서	-10.0227
om	-10.0228
▁포스	-10.0231
▁버그	-10.0235
리의	-10.0236
사는	-10.0236
헤	-10.0239
보다도	-10.0243
간의	-10.0247
ie	-10.0247
지게	-10.0254
룸	-10.0257
럭	-10.0259
▁최초	-10.0267
▁곳에	-10.0269
▁세이	-10.0271
▁왔다	-10.0271
▁자기가	-10.0275
컵	-10.0278
IN	-10.0279
▁거절	-10.0281
사로	-10.0285
곳	-10.0292
▁대다수	-10.0293
였	-10.0294
▁치고	-10.0295
▁중에서도	-10.0295
줘	-10.0297
▁정책	-10.0297
▁쓰기	-10.03
으로써	-10.0301
타를	-10.0305
▁예전	-10.0305
▁레이저	-10.0309
룩	-10.031
▁히로인	-10.0311
▁엘리	-10.0311
생활	-10.032
▁역전	-10.0326
ver	-10.0328
▁광역	-10.0328
▁한국의	-10.033
▁먹는	-10.0334
솔	-10.0334
▁__	-10.0338
▁뿐이다	-10.0344
상의	-10.0345
▁떨어져	-10.0347
▁닥터	-10.0347
▁학원	-10.0347
▁피해자	-10.035
▁중심으로	-10.0354
▁편집	-10.0355
보니	-10.0356
▁란	-10.0356
▁차원	-10.0363
▁띄	-10.0366
▁용병	-10.0367
▁이후에는	-10.0369
밥	-10.0371
ill	-10.0373
▁소리를	-10.0377
▁떨어지는	-10.038
겁	-10.0381
자마자	-10.0382
▁강력	-10.0383
해주	-10.0384
▁컨트롤	-10.0387
▁부담	-10.039
▁고유	-10.0403
접	-10.0405
법을	-10.0421
▁역대	-10.0424
▁아라	-10.0428
▁생물	-10.0433
▁걸려	-10.0434
▁찬	-10.0436
▁희망	-10.0437
▁쉬운	-10.0441
트의	-10.0445
▁극장판	-10.0445
려서	-10.045
겼	-10.0454
객	-10.0457
▁작곡	-10.0459
▁문제로	-10.0461
▁단체	-10.0465
리스트	-10.0466
닌	-10.0472
치기	-10.0472
▁그리스	-10.0473
호가	-10.0474
▁맹	-10.0475
주면	-10.0477
▁발휘	-10.0477
▁지옥	-10.0478
골을	-10.0478
▁텐	-10.048
▁한국에서	-10.0482
▁에어	-10.0482
▁추가바람	-10.0485
▁거쳐	-10.0493
▁방패	-10.0498
▁꾸준히	-10.0498
▁지명	-10.05
▁회장	-10.05
이지	-10.0503
맥	-10.0504
▁가드	-10.0509
▁온라인	-10.051
▁경계	-10.051
그룹	-10.0511
▁펜	-10.0511
▁날개	-10.0513
▁그렇다고	-10.0513
군을	-10.0518
▁가슴	-10.0518
즐	-10.0536
▁로드	-10.0537
▁그녀를	-10.0548
67	-10.0552
다보니	-10.0553
우가	-10.0555
▁태양	-10.0559
학생	-10.0561
▁약속	-10.0562
ard	-10.0569
▁지닌	-10.0569
▁탑재	-10.0575
▁상대적으로	-10.0576
▁처치	-10.0578
사이	-10.0579
시스	-10.0583
식을	-10.0587
▁듀얼	-10.0587
톱	-10.0589
▁결승	-10.0591
▁댓글	-10.0596
▁얻	-10.0598
▁없으며	-10.0601
▁탑승	-10.0602
▁젊은	-10.0604
▁마시	-10.0607
▁생겼다	-10.0607
르는	-10.0609
▁꾸	-10.0616
▁이쪽	-10.0617
IC	-10.062
▁막아	-10.0623
부를	-10.0628
델	-10.063
▁마크	-10.063
럴	-10.0632
▁납치	-10.0637
로운	-10.0641
시티	-10.0645
▁말했다	-10.0646
▁그럴	-10.0649
▁히어로	-10.0649
▁추가로	-10.065
물이	-10.0653
00	-10.066
▁인터뷰	-10.0661
▁위기	-10.0665
▁찾	-10.0668
▁인형	-10.0669
▁기술을	-10.0671
노스	-10.0672
▁정의	-10.0672
▁일은	-10.0676
▁성인	-10.0678
▁장군	-10.0679
▁밴	-10.068
중에	-10.0681
▁장점	-10.0693
오리	-10.0694
원의	-10.0694
▁콘	-10.07
▁라디오	-10.07
▁기지	-10.0702
▁밸런스	-10.0705
버릴	-10.0708
▁되며	-10.0722
▁강제	-10.0722
▁쿨	-10.073
▁전반	-10.0733
▁경험치	-10.0733
▁카운터	-10.0734
▁킬	-10.0738
▁패러디	-10.074
▁빙	-10.0745
▁어쩔	-10.0746
▁승리를	-10.0747
▁현장	-10.0747
▁그것	-10.0748
랭	-10.0748
▁중단	-10.0751
▁크리	-10.0751
▁클래스	-10.0752
▁멀리	-10.0755
ne	-10.076
▁플라	-10.0762
▁도움이	-10.0762
▁이것이	-10.0764
▁화염	-10.077
▁무엇보다	-10.077
▁중간에	-10.0774
▁날려	-10.0774
심을	-10.0775
▁됐다	-10.0775
▁추정	-10.0777
늘	-10.0778
▁때부터	-10.0783
▁고민	-10.0785
모드	-10.0787
▁엠	-10.079
▁품	-10.0801
▁걸리	-10.0803
▁코드	-10.0808
▁소비	-10.0814
▁틈	-10.0817
▁동맹	-10.0818
▁여름	-10.082
▁형태로	-10.082
▁상징	-10.0823
▁이후에	-10.0824
▁우려	-10.0831
정부	-10.0833
▁않으며	-10.0837
▁사실이	-10.0839
▁놈	-10.0841
▁많았다	-10.0846
▁뛰어	-10.0847
▁살짝	-10.0848
▁그래	-10.0849
▁당황	-10.0853
▁처음부터	-10.0854
▁스킬을	-10.0854
▁수준의	-10.0855
▁낳	-10.0856
▁불과	-10.0857
▁신체	-10.0862
ell	-10.0863
▁사용한	-10.0863
받는	-10.0863
▁자랑	-10.0865
계의	-10.0871
▁항공	-10.0873
닥	-10.0875
▁액션	-10.0879
▁설득	-10.0884
\	-10.0886
▁해금	-10.0892
▁투자	-10.0892
▁세상	-10.0896
▁없게	-10.0903
▁머리를	-10.0907
ap	-10.0911
▁잭	-10.0914
▁다수	-10.0916
▁인원	-10.0916
뉴	-10.0918
▁욕	-10.0919
▁군단	-10.092
▁늘어나	-10.0923
문화	-10.0926
멜	-10.0927
▁마사	-10.0933
▁Q	-10.0933
▁방법이	-10.0941
폴	-10.0942
▁과정	-10.0948
▁와서	-10.0948
▁검사	-10.0954
▁45	-10.0955
▁중이다	-10.0955
▁죠	-10.0959
▁누가	-10.096
▁마지막에	-10.0962
▁클로	-10.0963
68	-10.0963
메이	-10.0966
바이	-10.0974
음에도	-10.0975
▁공통	-10.0976
▁죽음	-10.0976
~19	-10.0978
▁행복	-10.0978
윈	-10.0978
▁않았고	-10.0979
▁쓰지	-10.0979
▁핵심	-10.098
▁갑	-10.0981
▁보수	-10.0986
▁범죄	-10.0991
▁고등학교	-10.0991
▁높아	-10.0991
▁느낌	-10.0993
ラ	-10.0993
▁카페	-10.0993
▁랜	-10.0994
▁활동을	-10.0996
▁조각	-10.1
▁장르	-10.1002
ive	-10.1003
▁깔	-10.1005
▁보급	-10.1007
▁주인공이	-10.1009
되었으나	-10.1013
▁파이	-10.1013
▁대공	-10.1022
▁길을	-10.1022
장은	-10.1023
▁사실은	-10.1025
▁SP	-10.1028
▁등록	-10.103
▁플	-10.1033
신이	-10.1034
▁2001	-10.1036
▁깊	-10.1038
줬다	-10.104
75	-10.1043
▁사라지	-10.1044
▁오늘	-10.1047
▁이상한	-10.105
기간	-10.1052
▁않아서	-10.1055
구나	-10.1059
장에	-10.1061
렐	-10.1061
31	-10.1063
드리	-10.1064
▁구입	-10.1065
▁눈을	-10.1067
▁스포츠	-10.1071
▁액	-10.1073
▁연계	-10.1073
▁벗	-10.1074
리와	-10.1083
앙	-10.1084
▁잃	-10.1088
▁때문인지	-10.1089
보단	-10.1091
▁부하	-10.1092
▁주제	-10.1093
나무	-10.1094
▁비록	-10.1099
▁유도	-10.1099
▁파악	-10.11
▁옆에	-10.1106
り	-10.1117
▁불리는	-10.1119
▁일행	-10.1119
▁쏘	-10.1121
제가	-10.1123
▁꼽	-10.1125
세계	-10.1125
위에	-10.113
핀	-10.1131
▁50%	-10.1136
▁철도	-10.1139
▁스펙	-10.114
▁가면라이더	-10.1149
▁계산	-10.1151
섬	-10.1156
▁지내	-10.1159
▁어차피	-10.1159
▁트위터	-10.1159
컷	-10.1163
▁열차	-10.1172
랐	-10.1176
▁무기를	-10.1182
▁De	-10.1183
▁떨	-10.1185
▁팀을	-10.1186
▁부진	-10.1186
받아	-10.1188
▁홍보	-10.1193
성은	-10.1197
▁억	-10.1198
▁베이스	-10.12
▁일종의	-10.1201
▁대한민국의	-10.1203
팬	-10.1209
하였으며	-10.1211
에게도	-10.1212
엇	-10.1216
▁그게	-10.1217
▁제시	-10.1219
▁다행히	-10.122
▁셋	-10.1222
▁끌	-10.1224
ack	-10.1228
▁그것도	-10.1232
▁증거	-10.1234
효과	-10.1235
부의	-10.1237
▁봐	-10.1239
▁시작한	-10.1241
▁얼음	-10.1244
▁디스	-10.1244
차전	-10.125
▁알려진	-10.1251
▁쥬	-10.1253
▁대기	-10.1255
▁사쿠라	-10.1256
▁카메라	-10.1259
▁방식으로	-10.1261
▁스탯	-10.1265
▁프레	-10.1266
▁기절	-10.1268
▁확률이	-10.1272
▁갔다	-10.1275
▁특기	-10.1275
▁둘이	-10.1275
▁위로	-10.1279
▁차례	-10.128
▁하드	-10.1284
▁외부	-10.1288
아서	-10.1288
▁콩	-10.1289
이던	-10.129
이었지만	-10.1297
▁들어가는	-10.1301
▁클럽	-10.1302
3%	-10.1305
▁커뮤니티	-10.1306
▁랜덤	-10.1306
마법	-10.1312
▁CV	-10.1316
우리	-10.1317
▁아프리카	-10.1326
되었는데	-10.1328
넬	-10.1333
팩	-10.1335
。	-10.1338
▁그렇다	-10.134
▁단독	-10.1342
▁나오는데	-10.1354
and	-10.1355
▁오해	-10.1356
권에서	-10.1359
▁한다고	-10.1364
▁털	-10.1364
▁장난	-10.1372
▁내용을	-10.1374
▁있습니다	-10.1377
EN	-10.1384
지지	-10.1384
▁떡밥	-10.1386
이치	-10.1389
▁오프닝	-10.1391
해주는	-10.1391
ce	-10.1395
▁붙여	-10.1398
▁달러	-10.1405
▁거주	-10.1406
쇄	-10.1411
▁막장	-10.1412
▁달라	-10.1413
▁정당	-10.1413
▁인상	-10.1414
▁1990	-10.1416
{	-10.1423
▁성격이	-10.1424
짜리	-10.1429
회의	-10.1429
▁없었	-10.1432
▁카나	-10.1433
하기로	-10.1434
▁화력	-10.1437
▁하나가	-10.144
▁규정	-10.1441
▁원하는	-10.1441
▁만든다	-10.1443
▁집안	-10.1444
▁마력	-10.1444
*	-10.1445
납	-10.1446
▁일부러	-10.145
▁진영	-10.1458
어도	-10.1461
보고	-10.1462
▁유우	-10.1463
▁거두	-10.1463
아이	-10.1467
▁활약을	-10.1471
▁이와	-10.1477
겠다	-10.1478
▁개편	-10.1478
▁나쁜	-10.1479
▁동일한	-10.1479
정보	-10.1481
아가	-10.1483
▁you	-10.149
플레이	-10.1495
▁사람도	-10.1503
데이	-10.1504
적이다	-10.1505
ry	-10.1509
켓	-10.1513
▁곳에서	-10.1516
▁클라	-10.1521
▁불가	-10.1521
▁당시에는	-10.1521
▁인생	-10.1524
▁들어오	-10.1526
부분	-10.1534
▁상대를	-10.1535
▁크라	-10.1536
▁오버	-10.1546
▁플레이어가	-10.1549
▁보도	-10.1554
▁소수	-10.1555
▁★	-10.1558
▁출발	-10.1564
▁목록	-10.1566
▁트리	-10.1569
▁버티	-10.1578
▁모션	-10.1579
톨	-10.158
▁아시아	-10.1581
▁재생	-10.1582
▁이들	-10.1584
▁드랍	-10.1586
▁아이템을	-10.1586
▁그만큼	-10.1588
▁평소	-10.1591
▁함대	-10.1596
▁미드	-10.1596
▁가깝다	-10.1596
▁몽	-10.1599
켄	-10.1604
하기에	-10.162
▁경기도	-10.1622
▁열심히	-10.1623
▁룰	-10.1624
▁빠진	-10.1625
▁크로스	-10.163
▁데이터	-10.1633
▁사람들을	-10.1635
▁게임의	-10.1635
▁다운	-10.1638
38	-10.1639
ON	-10.1649
!!!	-10.1652
▁라이벌	-10.1653
다니	-10.1654
47	-10.1655
▁미군	-10.1656
▁그다지	-10.1656
국의	-10.166
▁벌이	-10.1662
▁떨어진	-10.1662
자키	-10.1678
▁컨	-10.1678
▁드러나	-10.1679
く	-10.1684
▁저지	-10.1688
▁스피드	-10.1692
렁	-10.1695
▁승부	-10.1695
▁싶은	-10.1698
▁했다고	-10.1698
▁아스	-10.1699
▁오후	-10.1704
▁맞다	-10.1706
른다	-10.1708
▁불가능하다	-10.1709
▁틀	-10.1709
▁비슷하다	-10.1712
▁해적	-10.1713
잖아	-10.1714
ge	-10.1714
▁안되는	-10.1715
▁터지	-10.1717
▁있으므로	-10.1718
▁오리	-10.172
▁듀	-10.1724
▁많았	-10.1724
로서의	-10.1729
▁향해	-10.1729
▁브랜드	-10.173
술을	-10.173
▁하나를	-10.173
스카	-10.1731
▁메가	-10.1731
타가	-10.1731
▁수준이	-10.1735
▁재능	-10.1735
▁분석	-10.1737
▁있긴	-10.1737
▁약한	-10.1739
▁충돌	-10.1741
ag	-10.1741
2%	-10.1741
혹	-10.1743
▁크리스	-10.1744
Q	-10.175
▁싸우는	-10.1751
▁직전	-10.1752
▁놓고	-10.1752
으려	-10.1753
교통	-10.1759
트와	-10.1759
틸	-10.176
▁팩	-10.1762
が	-10.1766
-10	-10.1768
▁아오	-10.1769
▁붕괴	-10.1772
빨	-10.1775
눈	-10.1776
▁많고	-10.1783
▁근처	-10.1784
▁겨울	-10.1785
유키	-10.1788
되기도	-10.1794
씬	-10.1794
▁규모	-10.1795
▁여러가지	-10.1796
서는	-10.1804
▁올라	-10.1804
성과	-10.1807
▁데리고	-10.1809
▁아침	-10.1812
첩	-10.1813
▁고통	-10.1815
▁불만	-10.1816
▁기어	-10.1816
[	-10.1818
선이	-10.1819
65	-10.1819
▁입학	-10.182
▁감정	-10.1822
▁지시	-10.1824
▁마지막으로	-10.1827
▁넓	-10.1835
▁장수	-10.1837
퇴	-10.184
적이고	-10.1846
샷	-10.1847
▁번호	-10.1849
지원	-10.1854
뮤	-10.1854
▁오토	-10.1856
돼	-10.1857
▁붙잡	-10.1857
▁멜	-10.1861
▁비슷	-10.1863
33	-10.1865
마루	-10.1865
▁가까이	-10.1867
▁건너	-10.1872
넷	-10.1874
▁평화	-10.1877
▁붙어	-10.1877
▁먼	-10.1878
▁딜러	-10.1878
▁비하면	-10.188
▁자동차	-10.188
▁아웃	-10.1883
▁밀어	-10.1886
둘	-10.1887
웠	-10.1888
▁실시	-10.1888
▁졸	-10.1888
버전	-10.1893
▁갖	-10.1896
호를	-10.1899
코가	-10.1899
▁반영	-10.19
▁커버	-10.19
▁내내	-10.1904
▁초월	-10.1904
▁만족	-10.1906
회사	-10.1907
▁추정된다	-10.1911
하자면	-10.1913
▁웨	-10.1914
▁테러	-10.1918
▁브리	-10.1919
었다고	-10.1923
▁선배	-10.1925
▁강조	-10.1927
갔	-10.1929
44	-10.1932
▁옛	-10.1932
▁협력	-10.1934
▁센터	-10.1936
▁분야	-10.1937
▁멀티	-10.1939
비스	-10.1939
od	-10.1942
▁33	-10.1942
▁근거	-10.1952
▁채용	-10.1954
진이	-10.1958
▁지식	-10.196
섰	-10.1962
▁성적	-10.1962
▁두번째	-10.1963
▁왕자	-10.1965
찌	-10.1966
▁그녀	-10.1967
▁광주	-10.1967
▁전체적으로	-10.1967
▁꼴	-10.1971
36	-10.1972
▁몰래	-10.1973
▁혼란	-10.1976
der	-10.1977
▁사태	-10.1978
운동	-10.1979
59	-10.1979
▁전장	-10.1979
▁소유	-10.198
▁정말로	-10.198
▁존재하는	-10.1983
56	-10.1983
▁상태가	-10.1984
▁얼굴을	-10.1985
기만	-10.1986
▁범인	-10.1988
화된	-10.1989
▁그것을	-10.1993
수로	-10.1993
▁여론	-10.1996
▁밑	-10.1997
실점	-10.2
쥬	-10.2002
▁생각하는	-10.2006
▁이것은	-10.2009
100	-10.201
▁컨텐츠	-10.2013
▁얻은	-10.2014
▁근무	-10.2015
も	-10.2019
▁쫓	-10.2021
▁최강	-10.2024
온다	-10.2024
▁한글	-10.2028
▁레어	-10.2029
▁공군	-10.2032
▁운전	-10.2035
▁일반적으로	-10.2037
▁보여주었다	-10.2039
▁다니는	-10.204
▁그런지	-10.2043
▁받게	-10.2047
▁만들고	-10.2048
▁PS	-10.2051
RO	-10.2052
리어	-10.2055
선수	-10.2057
▁추가되었다	-10.2057
▁갓	-10.2059
대장	-10.2059
▁싫어	-10.2059
ine	-10.206
▁한화	-10.2062
▁10%	-10.2064
▁따르	-10.2066
▁기록했다	-10.2071
▁카즈	-10.2073
▁스파이	-10.2073
▁로켓	-10.2081
▁고급	-10.2082
부가	-10.2088
마저도	-10.2088
▁스킨	-10.209
▁언니	-10.2093
▁벗어나	-10.2093
마가	-10.2094
▁기반	-10.2098
구가	-10.2099
확	-10.21
일차	-10.2102
▁그동안	-10.2102
뢰	-10.2105
46	-10.2108
▁하다가	-10.2109
▁여동생	-10.211
▁조조	-10.2112
▁일으키	-10.2116
▁이쪽은	-10.2119
▁덕에	-10.212
▁꺼내	-10.2122
▁록	-10.2124
▁데이	-10.2129
▁입은	-10.213
▁감염	-10.213
▁한명	-10.2131
뒤	-10.2134
▁드립	-10.2136
▁마왕	-10.2137
▁전화	-10.2138
▁하던	-10.2141
▁외국	-10.2144
▁시청자들	-10.2148
▁격투	-10.2151
one	-10.2153
▁싶다	-10.2154
사람	-10.2154
37	-10.2158
크를	-10.2159
▁정확히	-10.216
▁하나의	-10.2161
▁순식간에	-10.2162
▁확	-10.2166
랭크	-10.2167
▁조준	-10.2169
▁느낌이	-10.2169
▁있도록	-10.217
▁수는	-10.217
케이	-10.2172
▁춤	-10.2174
▁현지	-10.2174
▁홍콩	-10.2174
금을	-10.2175
▁기획	-10.2178
▁역으로	-10.2179
▁해설	-10.2182
▁함선	-10.2183
시가	-10.2185
▁편성	-10.2187
▁형성	-10.2189
×	-10.219
▁아야	-10.2191
▁Sh	-10.2191
▁데미지가	-10.2191
▁했	-10.2197
▁그레이	-10.2201
▁추락	-10.2205
탱	-10.2206
▁그녀가	-10.2206
▁판타지	-10.2209
▁코스	-10.2211
▁그렇지	-10.2212
を	-10.2214
다운	-10.2215
▁미치	-10.2216
▁대부분이	-10.2216
▁낮아	-10.2223
RE	-10.2229
▁화살	-10.223
▁엑스	-10.2232
▁네이버	-10.2233
▁지나가	-10.2235
▁불안	-10.2237
▁차이	-10.2237
▁말도	-10.2238
▁칭	-10.2238
시키기	-10.2239
▁빼앗	-10.2244
▁징	-10.2248
▁수요	-10.2249
▁탄생	-10.2249
▁폭주	-10.225
됐	-10.2251
▁올림픽	-10.226
▁되자	-10.2264
▁실행	-10.2265
AM	-10.2266
▁모자	-10.227
덱	-10.2271
▁맡은	-10.2271
32	-10.2272
▁자리에	-10.2274
▁믿	-10.2274
▁행동을	-10.2277
아파트	-10.2279
▁보물	-10.2279
▁외에	-10.2283
▁업무	-10.2284
▁맡았다	-10.2286
▁돌파	-10.2289
▁잊	-10.2291
군은	-10.2292
▁돌진	-10.2292
겠다는	-10.2292
▁마녀	-10.2294
▁안정	-10.2294
▁본편	-10.2296
▁신뢰	-10.2298
겠	-10.2301
ta	-10.2304
성의	-10.231
▁베이	-10.2311
▁본격적으로	-10.2315
▁폰	-10.2319
▁의미가	-10.2322
▁찍어	-10.2322
▁주연	-10.2326
▁셰	-10.2326
▁계속해서	-10.2327
▁오랜	-10.233
랩	-10.2331
▁말해	-10.2332
▁상자	-10.2336
ま	-10.2336
브라	-10.2337
▁여왕	-10.2339
▁만난	-10.2339
▁통일	-10.2345
▁미친	-10.2349
▁성능이	-10.2352
▁의한	-10.2353
▁150	-10.2355
단의	-10.2357
뱅	-10.236
▁전투에서	-10.2364
겐	-10.2364
▁료	-10.2367
▁소식	-10.2372
튜	-10.2372
로써	-10.2372
▁못할	-10.2373
편에서	-10.2376
것을	-10.2381
▁여러모로	-10.2384
▁돌리	-10.2389
▁택	-10.2389
난다	-10.2392
휘	-10.2398
▁아무런	-10.2404
▁크레	-10.2408
▁마련	-10.2409
못	-10.241
▁밝히	-10.2417
▁기자	-10.2418
▁블	-10.2421
었으나	-10.2424
분이	-10.2428
개가	-10.2428
ED	-10.2429
▁봄	-10.2433
▁절반	-10.2435
주를	-10.2435
▁주전	-10.244
리오	-10.2441
▁쓰면	-10.2444
나와	-10.2445
▁암흑	-10.2449
붙	-10.2456
▁괜찮은	-10.2459
▁살려	-10.2463
수의	-10.2465
▁단지	-10.2466
버려	-10.2466
펠	-10.2471
▁반격	-10.2473
▁먹어	-10.2476
대에	-10.2478
되는데	-10.2482
▁아리	-10.2483
▁부분은	-10.2486
▁다루	-10.249
리나	-10.249
▁운명	-10.249
지면서	-10.2491
▁보여준	-10.2491
깝	-10.2496
こ	-10.2496
즈가	-10.2498
명으로	-10.2499
터미널	-10.25
▁들어간	-10.2501
옹	-10.2502
▁트레	-10.2502
▁심각한	-10.2504
39	-10.2505
▁랭크	-10.2505
▁현상	-10.2506
▁보유	-10.251
▁모르	-10.2511
템	-10.2513
피스	-10.2517
▁걷	-10.2518
▁바탕으로	-10.252
라이트	-10.2528
▁쉽다	-10.2528
▁의견이	-10.253
▁흘러	-10.2532
▁소멸	-10.2535
き	-10.2538
▁게이지	-10.2538
▁죽인	-10.2541
▁계승	-10.2542
▁적도	-10.2546
▁1999	-10.2551
르트	-10.2552
▁회전	-10.2554
▁실제로는	-10.2557
뷰	-10.2557
기까지	-10.2558
▁이름의	-10.2559
▁주변에	-10.2565
▁한때	-10.2565
▁묘	-10.2566
▁가입	-10.2569
▁질문	-10.2569
데다가	-10.2575
▁혼자서	-10.2577
소를	-10.2579
▁쏟아	-10.258
▁노출	-10.2584
▁경유	-10.2585
▁난이도가	-10.2585
▁지급	-10.2586
내고	-10.2586
▁부족한	-10.2592
▁외국인	-10.2594
▁움직이	-10.2595
▁거기다	-10.2595
▁잡기	-10.26
▁보이며	-10.2605
▁멀	-10.2609
▁것이라는	-10.261
▁마주	-10.2611
▁공유	-10.2612
ho	-10.2612
▁아니었	-10.2616
▁실수	-10.262
정이	-10.2621
관리	-10.2623
▁예외	-10.2625
▁무게	-10.2629
▁쥐	-10.263
89	-10.2633
▁흉	-10.2639
농	-10.264
34	-10.2641
99	-10.2642
▁무적	-10.2645
해져	-10.2646
▁정령	-10.2646
▁최악의	-10.2648
▁증명	-10.265
▁사용하면	-10.2652
▁수리	-10.2655
▁지어	-10.2658
em	-10.2659
▁덮	-10.2666
▁갑옷	-10.2671
ant	-10.2677
MA	-10.2681
no	-10.2682
▁합쳐	-10.2687
▁수준으로	-10.2689
▁없었던	-10.2693
▁근처에	-10.2693
▁하기도	-10.2693
▁재미	-10.2696
▁불편	-10.2698
룬	-10.2701
맹	-10.2707
▁|	-10.2708
해준다	-10.271
▁빨	-10.2711
▁하나인	-10.2719
▁친구들	-10.2721
▁상관	-10.2721
▁해체	-10.2725
est	-10.2728
▁코스트	-10.273
옵	-10.2738
▁형식	-10.274
▁말한	-10.2742
▁응원	-10.2745
와서	-10.2746
▁사거리	-10.2747
▁감독이	-10.2749
체가	-10.275
부에	-10.2758
ma	-10.2758
▁예선	-10.2768
함이	-10.2776
달라고	-10.2777
▁문제점	-10.2778
▁영향	-10.2781
었으며	-10.2783
41	-10.2784
▁보이고	-10.2784
▁갈등	-10.2784
지마	-10.2786
▁생일	-10.2788
▁목숨을	-10.2789
했었다	-10.279
▁명의	-10.279
▁수원	-10.2794
▁제도	-10.2796
▁풀어	-10.2798
▁레전드	-10.2799
▁쓰이는	-10.28
되자	-10.2801
▁것이었다	-10.2804
▁쫓아	-10.2811
▁샌	-10.2813
▁수입	-10.2819
▁노트	-10.2821
단지	-10.2822
▁왔	-10.2825
▁빔	-10.2827
▁타자	-10.283
▁방면	-10.2831
▁강하다	-10.2837
병원	-10.2837
▁쪽으로	-10.284
▁38	-10.2843
▁36	-10.2845
년도	-10.2851
신을	-10.2852
트는	-10.2854
▁가득	-10.2855
▁압박	-10.2857
▁대륙	-10.2857
▁전투력	-10.2858
で	-10.286
었을	-10.2861
▁취소	-10.2863
키가	-10.2864
▁오픈	-10.2865
▁정확히는	-10.2866
▁스페셜	-10.2867
na	-10.287
▁수단	-10.287
▁신규	-10.2872
▁비슷하게	-10.2872
▁등판	-10.2874
▁갈아	-10.2875
▁e	-10.2875
승을	-10.2877
▁이후로는	-10.2879
▁움직임	-10.2879
▁영역	-10.288
▁본선	-10.2883
이기에	-10.2887
영화	-10.2887
▁연애	-10.2888
▁놀라	-10.2888
이드	-10.289
だ	-10.2891
れ	-10.2891
▁에스	-10.2894
▁넘는	-10.2896
▁병사	-10.29
▁스피	-10.2902
▁재판	-10.2904
원으로	-10.2906
▁던져	-10.2908
려면	-10.2912
▁시행	-10.2912
▁작동	-10.2913
▁등장했다	-10.2913
49	-10.2913
▁파이어	-10.2914
-4	-10.2918
코의	-10.2919
▁느끼	-10.2926
▁격파	-10.2927
▁오류	-10.2928
공학	-10.2934
▁살고	-10.294
타는	-10.2941
ul	-10.2945
렙	-10.2957
츄	-10.296
▁무사	-10.2961
받고	-10.2961
▁올라오	-10.2962
▁웹	-10.2964
▁1998	-10.297
▁한자	-10.297
▁주기	-10.2972
▁국회의원	-10.2973
잠	-10.2973
별로	-10.2978
▁어그로	-10.2979
▁종합	-10.2985
リ	-10.2992
체를	-10.2999
고속도로	-10.3
▁선생님	-10.3
▁문명	-10.3003
할수	-10.3005
▁도중에	-10.3007
▁입장에서는	-10.301
▁상당	-10.301
▁거래	-10.3013
▁위력	-10.3013
▁첫번째	-10.3013
▁파트	-10.3013
▁패치로	-10.3014
▁쓰레기	-10.3017
▁하트	-10.3018
▁것이라	-10.302
질을	-10.3021
▁모습은	-10.3021
▁제작진	-10.3022
▁되찾	-10.3023
▁당한	-10.3026
이라며	-10.3026
▁이들의	-10.3028
롬	-10.3028
て	-10.3028
하려면	-10.303
▁정도는	-10.3031
짱	-10.3032
1%	-10.3033
▁문자	-10.3034
▁자신과	-10.3037
▁임명	-10.3038
▁위기에	-10.3041
▁NPC	-10.3041
▁채로	-10.3046
▁롱	-10.3047
왔	-10.3048
▁바닥	-10.3051
▁아니었다	-10.3055
▁키리	-10.3055
파이	-10.3056
▁쪽이	-10.3059
▁모험	-10.3059
신의	-10.3059
▁위해서는	-10.306
▁겐	-10.3063
짝	-10.3064
ア	-10.3067
프리	-10.3067
▁가르	-10.307
팡	-10.3073
▁유명하다	-10.3074
▁대만	-10.3076
▁인물이	-10.3078
▁이들이	-10.3082
▁탐	-10.3082
닐	-10.3082
▁어찌	-10.3083
▁고전	-10.309
▁스카이	-10.3093
▁파이터	-10.31
번호	-10.3102
▁닿	-10.3103
BR	-10.3103
▁본인도	-10.3106
/1	-10.3107
』	-10.3111
▁부인	-10.3113
▁어둠	-10.3115
그래	-10.3117
▁두산	-10.312
였으며	-10.3122
▁선호	-10.3124
▁늦	-10.3125
▁편이	-10.3125
▁레오	-10.3125
▁모리	-10.3126
▁집어	-10.3128
▁동원	-10.3128
▁사용해	-10.313
▁이승	-10.3131
여객	-10.3131
이었는데	-10.3137
▁스코어	-10.3139
시오	-10.314
▁안습	-10.3141
▁코믹스	-10.3144
역으로	-10.3144
42	-10.3147
▁폐지	-10.3148
▁그림자	-10.3153
상으로	-10.3153
EC	-10.3154
▁트랙	-10.3155
あ	-10.3162
▁압	-10.3163
주기	-10.3165
▁제법	-10.3167
▁언제	-10.3167
▁기관	-10.3169
▁or	-10.3172
▁해방	-10.3174
▁드디어	-10.3175
▁입수	-10.3176
age	-10.3176
▁1997	-10.3178
▁똑같이	-10.3187
▁파이널	-10.3188
▁구출	-10.3191
▁있었다고	-10.3194
▁뽑아	-10.3195
▁패시브	-10.32
릉	-10.3201
주차	-10.3203
▁전달	-10.3203
4%	-10.3209
▁^^	-10.3209
▁당선	-10.3211
드와	-10.3213
킥	-10.3213
▁뉴욕	-10.3214
▁살아남	-10.3215
▁노래를	-10.3219
탐	-10.3219
▁던지	-10.3219
▁아무것도	-10.322
원은	-10.3228
▁드러내	-10.3231
▁고생	-10.3232
▁아무도	-10.3232
식이	-10.3234
▁출처	-10.3236
▁충전	-10.3238
▁테마	-10.3238
▁라이트	-10.3239
▁아직도	-10.324
▁한국인	-10.324
로이드	-10.3241
▁헌터	-10.3244
▁Le	-10.3244
▁촉	-10.325
ら	-10.3251
▁심장	-10.3252
과학	-10.3256
관이	-10.3268
▁지하철	-10.3268
하라고	-10.3269
▁주목	-10.3272
▁도구	-10.3275
에서만	-10.3276
▁주민들	-10.328
▁계급	-10.3281
▁눈이	-10.3283
▁변형	-10.3286
▁감사	-10.3287
▁인간의	-10.3289
전대	-10.3291
▁야마	-10.3291
털	-10.3298
▁옛날	-10.3298
호의	-10.33
▁학살	-10.33
▁비중이	-10.33
▁먹을	-10.3301
졌	-10.3301
▁신인	-10.3303
▁몰려	-10.3307
▁g	-10.3308
▁이사	-10.3308
차가	-10.331
최	-10.3313
▁짤	-10.3323
▁MP	-10.3324
▁얻는	-10.3327
▁권력	-10.3327
주년	-10.3329
▁들어온	-10.3333
▁이후에도	-10.3334
▁신분	-10.3336
02	-10.3337
줘야	-10.3337
▁감시	-10.3337
▁늑대	-10.3342
▁신청	-10.3345
▁교통	-10.3346
▁주먹	-10.3348
▁몸이	-10.335
▁못하게	-10.335
▁방송을	-10.335
▁코어	-10.3352
ate	-10.3353
가능	-10.3353
IT	-10.3354
보이	-10.3358
▁폭풍	-10.3359
▁구현	-10.336
▁유저들이	-10.3364
▁몸에	-10.3365
▁스테	-10.3369
▁사건을	-10.337
▁후에는	-10.3371
▁상향	-10.3374
면서도	-10.3374
▁무료	-10.3381
▁동영상	-10.3384
▁올린	-10.3385
▁러브	-10.3388
▁큐	-10.3389
▁조금씩	-10.3392
▁미스	-10.3393
OS	-10.3393
▁크리티컬	-10.3394
주가	-10.3395
▁링	-10.3395
▁닌자	-10.3396
▁통한	-10.3405
ers	-10.3407
▁뚫	-10.3407
▁것인지	-10.3411
▁패스	-10.3414
▁파일	-10.3414
▁거짓말	-10.3415
▁건강	-10.3415
▁달린	-10.3422
진을	-10.3423
즈키	-10.3425
▁쿠로	-10.3427
▁맞지	-10.3428
▁즉시	-10.343
카가	-10.343
43	-10.3432
▁도와주	-10.3433
리지	-10.3435
▁SS	-10.3435
▁추적	-10.3437
권이	-10.3441
펀	-10.3446
▁없으면	-10.3452
타임	-10.3453
아웃	-10.3453
8%	-10.346
▁똑같은	-10.3464
단이	-10.3467
▁렌	-10.3469
판을	-10.3472
▁지나치게	-10.3472
▁지형	-10.3475
탄을	-10.3475
▁달아	-10.3478
▁카드가	-10.3482
▁키우	-10.3483
다른	-10.3484
있던	-10.3485
▁만들기	-10.3489
▁교환	-10.3492
▁통신	-10.3494
▁저그	-10.3495
봐	-10.3495
▁]	-10.3496
64	-10.3497
:1	-10.3501
▁직원	-10.3502
▁죽여	-10.3503
▁받기	-10.3504
▁몹	-10.3511
▁복장	-10.3516
▁꺾	-10.3516
일까지	-10.3522
▁적어도	-10.3523
▁사이가	-10.3523
휴	-10.3524
킷	-10.3525
/3	-10.3528
긴다	-10.3528
▁귀족	-10.3529
▁공격력이	-10.3529
릭스	-10.3535
크가	-10.3539
▁이르	-10.3546
티아	-10.3547
▁카르	-10.3547
▁쿄	-10.3553
▁대체로	-10.3554
▁VS	-10.3556
지기	-10.3557
▁신화	-10.3559
보는	-10.3559
▁인물들	-10.3559
▁안된다	-10.3561
▁돌격	-10.3563
▁반발	-10.3563
▁비율	-10.3563
자들은	-10.3564
▁말할	-10.3569
▁싶었	-10.3574
▁있어야	-10.3574
중학교	-10.3576
차를	-10.3578
▁미야	-10.3584
▁헤어	-10.3584
▁흥행	-10.3584
없	-10.3587
▁파일럿	-10.3592
▁요즘	-10.3593
▁그럼에도	-10.3594
▁일상	-10.3595
▁여신	-10.3596
▁인수	-10.3597
▁그래픽	-10.3599
ang	-10.3602
▁t	-10.3603
렸	-10.3603
봤	-10.3605
워드	-10.3607
것도	-10.3608
6%	-10.3611
▁찾는	-10.3615
등급	-10.3615
▁사운드	-10.3618
▁체제	-10.3619
▁만에	-10.3624
당했다	-10.3624
▁마음에	-10.3627
▁아머	-10.3628
▁묵	-10.3633
▁후속작	-10.3634
ab	-10.3634
안타	-10.3635
먹는	-10.3636
▁랩	-10.3637
끼리	-10.3639
▁떨어진다	-10.3642
▁코치	-10.3644
▁그들의	-10.3649
▁받았	-10.3649
븐	-10.3652
▁뿌리	-10.3655
▁군주	-10.366
▁말하면	-10.366
▁추격	-10.3661
▁대우	-10.3661
은행	-10.3663
▁넣는	-10.3665
이든	-10.3667
▁통해서	-10.3672
모리	-10.3672
▁하니	-10.3672
AD	-10.3674
시의	-10.3677
▁날아	-10.3679
▁알려	-10.368
▁일대	-10.3683
미를	-10.3686
식으로	-10.3686
율이	-10.3688
78	-10.369
▁유비	-10.3691
__	-10.3691
▁be	-10.3691
▁설정이	-10.3692
57	-10.3696
리우스	-10.3701
을때	-10.3702
▁위키	-10.3703
▁브라질	-10.3704
▁때려	-10.3705
▁목격	-10.3707
▁연락	-10.3707
66	-10.371
포인트	-10.371
▁생각을	-10.3711
▁l	-10.3711
사건	-10.3713
▁마이너	-10.3714
▁전까지	-10.3717
ve	-10.3719
ity	-10.372
졌고	-10.3722
▁부품	-10.3722
▁벌어진	-10.3728
▁관통	-10.3729
▁요새	-10.3731
▁내놓	-10.3732
▁폼	-10.3733
▁참전	-10.3736
▁댄스	-10.3739
▁거라고	-10.3742
문제	-10.3743
▁본작	-10.3744
人	-10.3746
▁고속	-10.3746
▁장치	-10.3748
▁이뤄	-10.3753
▁임시	-10.3753
인들이	-10.3755
▁그만	-10.3755
▁늘어	-10.376
▁동네	-10.3762
동을	-10.3762
▁인근	-10.3763
▁부분을	-10.3765
▁시기에	-10.3766
▁그녀는	-10.3766
▁외교	-10.3767
싸	-10.3768
▁불꽃	-10.3769
만큼은	-10.377
역을	-10.3772
▁연관	-10.3778
▁쓰인다	-10.378
▁동료들	-10.3786
▁누군가	-10.3787
▁팬들이	-10.3787
▁체포	-10.3788
협회	-10.379
▁방향으로	-10.3793
▁했을	-10.3802
▁요괴	-10.3803
▁출현	-10.3803
봇	-10.3804
▁자세	-10.3806
▁돼	-10.3807
▁평가가	-10.3807
▁Th	-10.3808
▁캐릭터를	-10.3809
베이	-10.3812
▁들어간다	-10.3818
▁베르	-10.3819
제로	-10.382
▁루시	-10.382
▁겁	-10.3821
▁나와서	-10.3825
▁엘프	-10.3825
▁부터	-10.3826
▁이라는	-10.3834
▁단순	-10.3835
▁총기	-10.3835
▁횟수	-10.3839
▁상처	-10.384
▁스킬이	-10.384
▁선수가	-10.3841
▁없애	-10.3844
▁제기	-10.3847
판에서는	-10.3849
▁도발	-10.3849
▁신고	-10.3849
하면서도	-10.3852
▁줄어들	-10.3855
거리는	-10.3855
▁최후	-10.3859
▁착각	-10.3867
▁기술이	-10.3868
AL	-10.3868
▁테크	-10.3868
카이	-10.3868
▁시티	-10.387
▁34	-10.387
▁일어난	-10.3878
홈런	-10.3882
꼬	-10.3882
프가	-10.3883
▁교회	-10.3885
▁맡고	-10.3892
해지는	-10.3894
▁피해량	-10.3895
▁속에	-10.3896
험	-10.3898
▁본명	-10.3899
BC	-10.3903
▁길드	-10.3906
▁조심	-10.3908
▁전함	-10.3909
▁시각	-10.391
▁넘기	-10.3913
테일	-10.3914
▁굳	-10.3914
▁한데	-10.3917
▁진정한	-10.3917
▁콘서트	-10.3917
평가	-10.3918
▁날아가	-10.3919
▁오는	-10.3919
▁사진을	-10.3921
▁입력	-10.3922
co	-10.3922
▁대원	-10.3924
▁크고	-10.3924
부로	-10.3925
▁우승을	-10.3925
▁화이트	-10.3925
pe	-10.3934
▁Me	-10.3935
가며	-10.3939
ist	-10.3939
ha	-10.3941
▁공작	-10.3942
▁20%	-10.3943
▁대규모	-10.3943
▁아파트	-10.3944
▁상상	-10.3946
당하는	-10.3947
▁비중	-10.3952
ub	-10.3953
▁거야	-10.3954
▁Ar	-10.3954
▁토모	-10.3955
인간	-10.3959
▁눈치	-10.396
프를	-10.396
였다고	-10.3961
리카	-10.3964
87	-10.3966
제국	-10.3966
쟁이	-10.3967
전의	-10.3968
▁등에서	-10.3968
전차	-10.3969
커스	-10.3969
▁단일	-10.397
▁짐	-10.397
시를	-10.3974
▁갔	-10.3974
▁문을	-10.3977
▁곰	-10.3981
▁결론	-10.3983
▁정권	-10.3983
상이	-10.3984
▁템	-10.3989
▁자식	-10.3993
국가	-10.3996
ト	-10.3998
▁존재하지	-10.3999
▁홈런	-10.3999
▁대폭	-10.3999
▁여부	-10.4
하시	-10.4
▁그것이	-10.4003
▁끌고	-10.4006
▁공격이	-10.4008
▁수업	-10.401
▁보정	-10.4012
마을	-10.4014
▁산업	-10.4015
AS	-10.4018
지와	-10.4021
▁시야	-10.4024
▁윌	-10.4025
▁오빠	-10.4027
▁느리	-10.4028
쳐서	-10.4028
단을	-10.403
▁장식	-10.4033
▁대립	-10.4033
▁통제	-10.4043
▁기습	-10.4046
▁흥	-10.4048
▁대략	-10.4048
▁방법을	-10.4049
▁노리	-10.4051
▁##	-10.4053
.12	-10.406
▁해주	-10.406
▁위험한	-10.4069
토가	-10.4069
▁캐릭터로	-10.4069
▁언제나	-10.4071
뿐만	-10.4073
▁양산	-10.4074
▁BGM	-10.4082
▁초창기	-10.4083
았던	-10.4083
▁이곳	-10.4083
▁You	-10.4083
즈를	-10.4084
터를	-10.4085
시설	-10.4088
▁1996	-10.4093
세의	-10.4093
▁밟	-10.4095
▁좋아한다	-10.4098
▁갱	-10.4098
▁팬들은	-10.4101
▁옮겨	-10.4103
▁습득	-10.4103
▁없었고	-10.4104
69	-10.4104
스토	-10.4107
히로	-10.4109
▁잇	-10.411
;	-10.411
▁때에는	-10.4113
쿠라	-10.4115
당해	-10.4117
패를	-10.4118
조차도	-10.4118
▁특이한	-10.412
▁북미	-10.412
▁유행	-10.412
▁해당하는	-10.4121
▁공항	-10.4121
▁끌려	-10.4124
사업	-10.4125
▁권총	-10.4129
▁Tr	-10.4129
너스	-10.413
넥	-10.4131
▁고백	-10.4134
▁바라	-10.4136
데스	-10.414
▁맞이	-10.4143
ast	-10.4143
▁반응을	-10.4147
58	-10.4149
이었기	-10.4152
▁만났	-10.4153
▁매력	-10.4156
▁쿠키	-10.4157
▁너프	-10.416
▁민족	-10.4161
▁전방	-10.4165
▁검색	-10.4167
79	-10.4168
프레	-10.417
계를	-10.4172
▁깊은	-10.4174
석을	-10.4174
▁환자	-10.4178
▁정류장	-10.4181
▁넓은	-10.4182
▁심한	-10.4183
さ	-10.4187
▁DLC	-10.4187
▁나쁘지	-10.4193
▁테스트	-10.4194
▁위장	-10.4198
▁모바일	-10.4202
▁환상	-10.4204
▁상품	-10.4214
학자	-10.4214
▁도망치	-10.4217
os	-10.4219
▁값	-10.4219
▁최소한	-10.4219
▁당시의	-10.4221
▁타워	-10.4224
바라	-10.4226
▁차라리	-10.423
▁관계가	-10.4232
▁고향	-10.4232
마를	-10.4234
▁지휘관	-10.4241
왕의	-10.4241
▁명예	-10.4244
▁보여주고	-10.4246
▁돕	-10.4247
▁태도	-10.4249
▁시민	-10.4252
주자	-10.4257
사단	-10.4259
▁됐	-10.4259
▁군인	-10.426
당하고	-10.4262
▁지키	-10.4262
▁아크	-10.4263
라와	-10.4263
per	-10.4267
▁김정	-10.4267
▁나름대로	-10.4269
▁아니냐는	-10.4271
bo	-10.4272
▁기회를	-10.4272
一	-10.4273
타이	-10.4274
▁팀은	-10.4279
오가	-10.428
▁de	-10.4284
ak	-10.4286
▁전역	-10.4288
▁젠	-10.4289
▁않았지만	-10.429
력으로	-10.429
▁마리오	-10.429
▁나누	-10.4297
▁도달	-10.4298
번에	-10.4298
hi	-10.43
▁대량	-10.4301
▁문장	-10.4304
▁소화	-10.4306
▁Sp	-10.4307
▁삼국지	-10.431
▁48	-10.4315
▁마츠	-10.4318
사회	-10.432
▁어디까지나	-10.4323
▁추진	-10.4325
▁제국의	-10.4327
▁위치를	-10.4328
▁성능을	-10.4328
박스	-10.433
▁노예	-10.4332
▁간혹	-10.4333
▁37	-10.4333
▁경력	-10.4337
▁변경되었다	-10.4341
▁실력을	-10.4343
▁후지	-10.4345
▁은근히	-10.4346
▁라이더	-10.4347
▁메탈	-10.4348
▁든	-10.4348
색이	-10.4353
형이	-10.4354
▁아버지가	-10.4358
▁무언가	-10.4359
▁크루	-10.4359
▁자격	-10.4362
▁유령	-10.4366
렘	-10.4371
▁최후의	-10.4372
▁적극적으로	-10.4375
즘	-10.4375
▁밖으로	-10.4376
▁상점	-10.4376
▁파견	-10.4377
도르	-10.4377
▁이루어진	-10.4378
판에	-10.438
▁따위	-10.4381
ff	-10.4383
공항	-10.4386
▁멀쩡	-10.4387
질이	-10.439
▁브루	-10.4391
▁침공	-10.4392
공사	-10.4393
▁악역	-10.4394
▁여유	-10.4395
▁거리가	-10.4396
▁이것을	-10.4396
▁어깨	-10.4397
▁의혹	-10.4398
르고	-10.44
▁메타	-10.4401
▁흐	-10.4402
▁페이	-10.4404
▁부모님	-10.4404
▁박근혜	-10.4409
up	-10.4409
앵	-10.4416
▁현재까지	-10.4417
▁이성	-10.442
드립	-10.4421
▁회수	-10.4424
▁게임에서	-10.4424
▁흔	-10.4426
되었지만	-10.443
▁보며	-10.443
▁어떻게든	-10.4432
▁의뢰	-10.4434
800	-10.4435
▁,,	-10.4435
▁돌아온	-10.4437
▁대화를	-10.4437
▁죽는	-10.4438
블리	-10.4439
▁교사	-10.4439
▁구속	-10.4441
/2	-10.4442
▁말이다	-10.4444
▁이끌	-10.4444
▁계정	-10.4445
to	-10.4446
▁지점	-10.4446
▁이론	-10.4446
▁중계	-10.4447
도시	-10.4448
51	-10.4452
▁CD	-10.4452
음이	-10.4455
▁때의	-10.4457
▁클레	-10.4457
▁한동안	-10.4463
▁펼쳐	-10.4467
▁곧바로	-10.4467
▁탄약	-10.4467
▁써먹	-10.4467
▁그랬	-10.4468
▁낫다	-10.447
▁많아서	-10.4472
으론	-10.4473
▁짧	-10.4473
▁의상	-10.4475
▁튀	-10.4476
ong	-10.4481
man	-10.4482
▁힘으로	-10.4483
▁반응이	-10.4485
▁1995	-10.4485
▁하더라도	-10.4487
▁병사들	-10.4488
▁난다	-10.4488
▁주지	-10.4488
▁사람들의	-10.4492
▁쉽지	-10.45
▁Ma	-10.4502
▁유사	-10.4509
▁기억을	-10.451
▁되지만	-10.4514
▁붙어있	-10.4516
않	-10.4517
▁경영	-10.4518
▁타케	-10.4519
▁수집	-10.4519
▁퀸	-10.4523
숭	-10.4525
▁끝나고	-10.4526
당한다	-10.453
▁어쨌든	-10.4532
▁바르	-10.4536
▁갤럭시	-10.454
▁보장	-10.454
셋	-10.4541
▁막기	-10.4542
하였	-10.4546
▁사토	-10.455
▁성공했다	-10.4552
▁카오스	-10.4552
▁죽이	-10.4555
텍	-10.4555
▁반란	-10.4557
▁알겠지만	-10.4563
획	-10.4564
하겠다고	-10.4566
넘	-10.4567
▁더더욱	-10.4569
▁시청자	-10.457
▁곳으로	-10.4572
▁제주	-10.4574
▁나오기	-10.4582
▁점차	-10.4583
핏	-10.459
▁사람들에게	-10.4593
포를	-10.4596
▁안에서	-10.4596
중인	-10.4598
ome	-10.4598
▁캐릭터의	-10.4598
▁근육	-10.46
▁경비	-10.4601
▁컴	-10.4602
▁경고	-10.4604
웰	-10.4606
▁소리가	-10.4606
▁와이	-10.4607
..."	-10.4608
▁예측	-10.4611
▁전직	-10.4613
▁『	-10.4614
▁보이지만	-10.4615
▁미츠	-10.4615
▁찾아가	-10.4616
▁죽었다	-10.4617
▁홀로	-10.4619
끈	-10.4621
▁영향력	-10.4622
54	-10.4622
▁일원	-10.4623
든지	-10.4624
▁결승전	-10.4625
▁k	-10.4626
스로	-10.4626
▁글을	-10.4629
▁생각보다	-10.4634
▁불법	-10.4634
▁능력은	-10.4635
▁그에게	-10.4637
▁어둠의	-10.4639
▁유래	-10.4639
▁없던	-10.464
OR	-10.4643
피아	-10.4643
▁압도적인	-10.4645
꾸	-10.4646
▁출장	-10.4647
였기	-10.4649
연합	-10.4652
▁알려주	-10.4654
▁수학	-10.466
▁마이크	-10.466
▁개통	-10.4661
▁리메이크	-10.4665
어스	-10.4666
▁알파	-10.4672
▁구체	-10.4672
▁확실	-10.4674
▁정치적	-10.4676
▁썼	-10.4676
안을	-10.4679
싸움	-10.468
▁탱커	-10.4687
+1	-10.4688
▁순서	-10.4689
▁for	-10.4694
점으로	-10.4696
▁수호	-10.4698
▁모여	-10.4699
▁않아도	-10.47
▁생각하고	-10.4703
▁육성	-10.4704
로만	-10.4704
sh	-10.4706
▁전투기	-10.4707
▁빵	-10.4707
▁조절	-10.4711
토스	-10.4712
석이	-10.4717
▁돌아다니	-10.4721
▁이날	-10.4721
그리	-10.4721
▁마이클	-10.4722
▁강제로	-10.4722
지구	-10.4727
▁파트너	-10.4728
▁차별	-10.4728
▁이루어지	-10.4729
▁43	-10.4732
▁일본에서	-10.4732
활동	-10.4734
▁브라	-10.474
▁잡지	-10.4744
ク	-10.4746
표를	-10.4748
▁푸른	-10.475
▁러	-10.4753
혔다	-10.4758
버렸	-10.4759
크로	-10.476
장치	-10.4761
관을	-10.4763
루가	-10.4764
▁×	-10.477
▁빌드	-10.4771
94	-10.4771
ame	-10.4775
▁합격	-10.4777
▁면에서	-10.4779
▁싸울	-10.4781
▁뮤	-10.4783
방어	-10.4783
▁느껴	-10.4785
티스	-10.4785
▁이용하여	-10.4788
ment	-10.4794
▁회원	-10.4798
시는	-10.4801
▁예능	-10.4802
▁절망	-10.4805
▁받아들이	-10.4809
▁협박	-10.4811
▁파라	-10.4811
▁가스	-10.4812
셜	-10.4814
▁의미로	-10.4819
업을	-10.4821
▁블록	-10.4823
▁헤이	-10.4824
▁않았던	-10.4825
베르	-10.4826
▁대충	-10.4826
▁정도다	-10.4826
▁1980	-10.4833
▁보일	-10.4833
잘	-10.4833
▁주위	-10.4835
▁전투를	-10.4838
▁힘들어	-10.484
퀴	-10.484
▁외에는	-10.4841
-20	-10.4841
▁무력	-10.4849
▁인간이	-10.4852
▁매일	-10.4852
내기	-10.4854
▁단순한	-10.4855
▁깎	-10.4857
▁인연	-10.4858
▁보석	-10.4863
▁죽는다	-10.4864
시절	-10.4866
▁사전	-10.4866
▁최종보스	-10.4867
▁목적으로	-10.4868
▁바보	-10.4868
900	-10.4868
52	-10.487
▁생각이	-10.487
▁지속적으로	-10.4871
▁걸린	-10.4874
▁작품이	-10.4875
▁붙은	-10.4877
▁육체	-10.4887
?'	-10.4887
▁관계로	-10.4892
▁120	-10.4893
스코	-10.4895
▁잡는	-10.4896
뚝	-10.4897
▁상당수	-10.4905
▁순수	-10.4907
▁42	-10.4913
NA	-10.4916
▁불린다	-10.4922
닛	-10.4922
▁아사	-10.4925
▁하위	-10.4927
▁한참	-10.4928
▁공장	-10.4929
▁Be	-10.493
들이다	-10.4932
파크	-10.4933
▁말은	-10.4934
▁없으니	-10.4935
▁폭력	-10.4937
▁이치	-10.4937
BS	-10.4939
▁01	-10.4944
▁소닉	-10.4944
적으로는	-10.4945
▁정확한	-10.4947
92	-10.4947
▁우리가	-10.4949
▁오른	-10.4951
▁팬덤	-10.4951
▁조언	-10.4956
▁박살	-10.4957
7%	-10.4959
▁통상	-10.496
▁밝힌	-10.4961
▁감옥	-10.4963
▁테란	-10.4967
▁기반으로	-10.4968
▁우리나라	-10.497
하지는	-10.497
▁정도가	-10.4972
▁남아있	-10.4973
▁FA	-10.4976
▁39	-10.4978
400	-10.498
シ	-10.4981
▁>	-10.4981
▁쏴	-10.4986
▁대처	-10.4987
▁소드	-10.4987
▁NC	-10.4989
▁당해	-10.4992
때는	-10.4992
▁용사	-10.4993
84	-10.4995
역에서	-10.4995
▁계획을	-10.4996
▁평타	-10.4998
▁몬	-10.4998
▁등장하지	-10.4999
▁요정	-10.5003
▁써서	-10.5005
▁구역	-10.5006
전사	-10.5007
▁하거나	-10.5012
략	-10.5013
▁내에	-10.5014
▁상황이다	-10.5015
ip	-10.5015
▁대학교	-10.5021
▁피부	-10.5023
▁웹툰	-10.5027
▁안내	-10.503
▁캐리	-10.5035
▁합성	-10.5035
▁감안	-10.5039
▁자신도	-10.5044
▁지니고	-10.5045
ド	-10.505
▁하수인	-10.5051
▁400	-10.5051
▁작용	-10.5052
▁향상	-10.5054
▁사마	-10.5066
▁썩	-10.5067
▁떼	-10.5067
▁구멍	-10.5068
▁세대	-10.5068
▁특별한	-10.507
▁영문	-10.5072
▁신성	-10.5073
톡	-10.5073
700	-10.5075
▁잡을	-10.5075
▁동방	-10.5076
▁관광	-10.5078
▁대상으로	-10.5078
회를	-10.5085
▁교전	-10.5087
야만	-10.5088
▁영토	-10.5089
▁사용하기	-10.5089
지면	-10.5091
등을	-10.5092
나마	-10.5092
▁처벌	-10.5093
▁나카	-10.5097
▁베트남	-10.5104
▁어려워	-10.5106
▁결과적으로	-10.5106
▁신세	-10.5106
▁동작	-10.5108
▁많은데	-10.5108
지며	-10.511
▁결말	-10.511
53	-10.5115
▁주민	-10.5116
스테	-10.5116
▁있었으며	-10.5116
▁뒤를	-10.5119
▁같아	-10.5123
툴	-10.5127
▁카라	-10.5133
타입	-10.5133
▁게스트	-10.5136
nd	-10.5139
▁내지	-10.514
타운	-10.5142
▁자매	-10.5146
▁1994	-10.5147
▁분량	-10.5148
▁마구	-10.5149
스에게	-10.515
▁75	-10.5152
▁의무	-10.5155
▁일도	-10.5157
▁버리고	-10.5158
▁제자	-10.5159
▁떡	-10.5162
▁공화국	-10.5162
회에서	-10.5164
마의	-10.5164
▁작가가	-10.5165
▁같지만	-10.5165
▁보낸	-10.5166
니가	-10.5166
전에서는	-10.5169
▁공을	-10.517
캔	-10.5172
▁천사	-10.5172
사관	-10.518
▁세워	-10.5181
マ	-10.5181
미터	-10.5185
위가	-10.5185
▁혁명	-10.5187
순위	-10.519
▁죄다	-10.5192
아나	-10.5195
▁승격	-10.5199
▁그려	-10.5203
▁실드	-10.5204
▁아빠	-10.5204
터가	-10.5205
심이	-10.5206
▁다룬	-10.5207
▁나나	-10.521
▁연방	-10.5211
께	-10.5216
▁수송	-10.5227
되었을	-10.5231
-5	-10.5235
프라	-10.5236
子	-10.5236
▁준우승	-10.5236
다시피	-10.5238
믹	-10.5238
▁최강의	-10.524
군에	-10.5242
▁고용	-10.5243
하는게	-10.5243
▁챕터	-10.5244
일에는	-10.5248
▁한타	-10.5248
개로	-10.5249
▁이들을	-10.5253
오카	-10.5253
▁밝혀졌다	-10.5255
▁우연히	-10.5262
▁좋게	-10.5265
▁날리	-10.5269
▁기병	-10.527
▁공격에	-10.5271
▁다루는	-10.5273
▁아프	-10.5273
분을	-10.5276
ac	-10.5276
▁릴리	-10.5279
▁부수	-10.5282
9%	-10.5282
것으로	-10.5282
두고	-10.5283
▁대사를	-10.5283
▁Ro	-10.5286
▁안나	-10.5287
조사	-10.5289
화에	-10.5291
▁전공	-10.5299
▁퀄리티	-10.5299
▁핀	-10.53
했다가	-10.5301
▁이재	-10.5302
▁합체	-10.5307
▁비해서	-10.5309
복을	-10.531
▁모양이다	-10.531
▁달고	-10.5311
더스	-10.5311
▁사라	-10.5315
▁미라	-10.5317
▁있는지	-10.532
▁is	-10.5322
▁현역	-10.5322
▁수십	-10.5322
▁자랑한다	-10.5324
▁드러	-10.5324
▁정치인	-10.5324
▁경기가	-10.5328
우드	-10.5331
▁측에서	-10.5331
▁농구	-10.5332
▁막을	-10.5334
학원	-10.5334
▁들어갈	-10.5336
맵	-10.5338
▁세우	-10.5338
▁회의	-10.534
나미	-10.5342
▁표준	-10.5343
▁전멸	-10.5343
▁주도	-10.5344
▁가속	-10.5347
ca	-10.5348
▁제조	-10.5349
▁기초	-10.535
▁30%	-10.535
▁지역에	-10.5353
공원	-10.5353
▁전형적인	-10.5354
네스	-10.5356
▁락	-10.5358
되어서	-10.5361
우치	-10.5362
▁ST	-10.5363
컴	-10.5363
▁에리	-10.5364
▁입지	-10.5364
▁메뉴	-10.5365
▁찾기	-10.5366
▁중학교	-10.5367
▁있기에	-10.5367
키를	-10.5367
▁나타난	-10.5369
▁언급한	-10.537
량을	-10.5379
▁장교	-10.538
▁양쪽	-10.5384
▁환영	-10.5384
있어	-10.5385
▁02	-10.5387
▁지금도	-10.5387
까지만	-10.5392
스럽게	-10.5394
AC	-10.5394
▁사용하지	-10.5395
▁미카	-10.5398
▁정지	-10.5399
▁수용	-10.5399
ance	-10.54
▁비행기	-10.54
▁오랫동안	-10.5402
▁프리큐어	-10.5402
▁불가능한	-10.5402
레이션	-10.5406
되었기	-10.5407
넨	-10.541
▁곤	-10.5412
▁형태의	-10.5417
▁생명력	-10.5418
▁없는데	-10.5419
▁본체	-10.5424
▁마법을	-10.5424
▁구원	-10.5426
85	-10.5427
▁잡혀	-10.5429
▁세계의	-10.543
▁적대	-10.543
▁부상을	-10.543
▁후반에	-10.5432
괄	-10.5434
▁원본	-10.5436
▁전쟁을	-10.5437
▁기사단	-10.544
▁녹음	-10.5442
▁허나	-10.5444
mo	-10.5445
CS	-10.5446
▁인터뷰에서	-10.5447
동이	-10.5447
냐는	-10.5448
▁말로	-10.5448
▁수련	-10.5449
가미	-10.5452
▁예술	-10.5453
▁김영	-10.5453
어요	-10.5453
▁측면	-10.5456
▁훌륭한	-10.5456
▁관심이	-10.5458
력은	-10.5462
핸	-10.5466
▁쾌	-10.5468
▁자리에서	-10.5471
▁족	-10.5473
깃	-10.5474
日	-10.5474
▁다섯	-10.5475
▁55	-10.5477
항공	-10.5477
▁회상	-10.5478
▁기다리	-10.5481
▁캐나다	-10.5482
▁기능이	-10.5488
▁분위기가	-10.549
▁지금의	-10.5491
넌	-10.5492
편의	-10.5494
▁AI	-10.5495
▁잃은	-10.5501
▁블레이드	-10.551
▁남긴	-10.551
▁할아버지	-10.5511
▁민주	-10.5511
▁곡을	-10.5513
▁컷	-10.5515
SS	-10.5515
▁중에는	-10.5515
▁기본적인	-10.5516
▁잃고	-10.5518
무장	-10.5521
▁매치	-10.5526
고속	-10.5533
▁반지	-10.5535
▁각자	-10.5536
▁버렸다	-10.5537
@	-10.5538
▁외형	-10.554
▁조지	-10.554
졸	-10.5542
▁했으며	-10.5543
▁실력이	-10.5543
▁비싸	-10.5547
▁대표적으로	-10.555
터널	-10.5551
▁청년	-10.5552
▁사용하고	-10.5553
▁빼고	-10.5553
벅	-10.5555
이었다고	-10.5555
▁MAX	-10.5555
▁스톰	-10.5557
▁남부	-10.5559
클리	-10.556
▁입단	-10.5565
▁싸움을	-10.5567
라면서	-10.5569
95	-10.5569
▁대로	-10.5571
▁적응	-10.5571
득점	-10.5572
▁체력을	-10.5575
▁섞	-10.5577
▁사람들도	-10.5578
▁인증	-10.5579
▁의존	-10.5579
▁비트	-10.5579
▁이어지는	-10.5582
▁갈수록	-10.5583
▁연상	-10.5583
노트	-10.5584
대사	-10.5585
▁되어서	-10.5585
▁창조	-10.5586
▁음성	-10.5587
▁사령관	-10.5587
▁치명타	-10.5587
▁대미지를	-10.5592
AT	-10.5596
▁이내	-10.5601
▁어릴	-10.5602
▁입구	-10.5608
▁강철	-10.5609
63	-10.561
▁공개된	-10.5611
띠	-10.5611
DS	-10.5613
카의	-10.5613
▁대상이	-10.5616
▁보지	-10.5618
end	-10.5618
▁부부	-10.5622
ID	-10.5623
쪽으로	-10.5624
되었	-10.5625
74	-10.5629
▁뼈	-10.563
▁장면을	-10.5631
▁익숙	-10.5635
▁이거	-10.5642
カ	-10.5644
▁이길	-10.5652
▁포탑	-10.5652
▁사양	-10.5658
▁보게	-10.566
▁봐야	-10.566
대상	-10.5661
히토	-10.5663
약을	-10.5668
▁서양	-10.5668
방향	-10.5671
▁코우	-10.5673
83	-10.5676
▁귀찮	-10.5678
켜	-10.5681
▁마침내	-10.5682
▁다양	-10.5684
▁웬	-10.5685
▁연인	-10.5687
▁경향이	-10.5687
▁바뀐	-10.5688
▁의견	-10.5691
▁적어	-10.5693
▁이동속도	-10.5697
▁제임스	-10.5702
▁맞은	-10.5702
▁죽음을	-10.5703
▁마침	-10.5704
▁영구적	-10.5704
부에서	-10.5709
호는	-10.5711
물로	-10.5712
▁이러	-10.5714
▁끊어	-10.5714
▁둥	-10.5715
▁접속	-10.5716
▁욕을	-10.5716
▁99	-10.5716
お	-10.5718
자에게	-10.572
▁심리	-10.5723
▁헤드	-10.5723
차로	-10.5724
이랑	-10.5724
▁유저가	-10.5729
머니	-10.5735
▁정면	-10.574
▁빚	-10.5741
한데	-10.5744
▁결코	-10.5746
▁울산	-10.5746
자들을	-10.5747
▁평이	-10.5749
ロ	-10.5751
▁안드로이드	-10.5751
vi	-10.5752
방식	-10.5754
▁수사	-10.5757
▁재현	-10.5761
▁사카	-10.5766
▁전면	-10.5766
98	-10.5767
▁Do	-10.577
▁혹	-10.5772
▁페이지	-10.5774
▁마리아	-10.5775
▁일명	-10.5779
▁증언	-10.5781
▁나눠	-10.5784
처리	-10.5785
▁기분	-10.5785
▁남겨	-10.5786
▁MC	-10.5787
▁천재	-10.5788
▁올라온	-10.5792
▁하나는	-10.5792
딕	-10.5792
▁만들었	-10.5793
▁명이	-10.5797
닷	-10.58
▁장악	-10.5801
미의	-10.5802
▁II	-10.5806
형을	-10.5812
▁마음이	-10.5813
역이	-10.5816
함에	-10.5817
▁비디오	-10.5817
▁접촉	-10.5818
▁요원	-10.582
들만	-10.5825
▁죽고	-10.5826
▁영업	-10.5826
차량	-10.5827
300	-10.5828
품을	-10.5834
▁맘	-10.5834
▁이상으로	-10.5834
▁전에는	-10.5835
▁He	-10.5836
▁가짜	-10.5836
▁미나	-10.5837
▁혜	-10.5837
▁죽일	-10.5842
▁별다른	-10.5845
전투	-10.5845
▁분위기를	-10.5847
▁왕조	-10.585
되게	-10.585
▁있어도	-10.5851
▁생겼	-10.5855
▁태어난	-10.5859
▁벌어	-10.5859
방을	-10.586
600	-10.5865
되지만	-10.5866
쉐	-10.5867
▁개방	-10.5869
▁파리	-10.5874
▁신문	-10.5874
タ	-10.5875
나가는	-10.5876
▁물어	-10.5877
▁강남	-10.5879
받았다	-10.5879
▁나타	-10.588
▁이외에도	-10.588
▁용의	-10.588
▁틀어	-10.5883
▁죽지	-10.5884
또	-10.5886
▁김성	-10.5886
▁빨라	-10.5886
▁맞서	-10.5886
▁그에	-10.5888
마스터	-10.5888
경찰	-10.5889
▁편이라	-10.589
▁북쪽	-10.589
▁것이고	-10.589
시리즈	-10.5892
▁옷을	-10.5899
ake	-10.59
봐야	-10.5903
-12	-10.5907
▁삶	-10.5909
▁실버	-10.5915
페이	-10.5916
XX	-10.5917
▁다들	-10.5918
▁성적을	-10.5918
필드	-10.592
▁무기로	-10.5921
장과	-10.5926
버리면	-10.5926
▁용어	-10.5928
▁단점이	-10.5931
▁+2	-10.5933
▁말자	-10.5933
▁아나	-10.5934
▁호텔	-10.5936
art	-10.5936
▁충성	-10.594
LE	-10.594
▁땐	-10.5941
▁작사	-10.5942
山	-10.5942
▁커맨드	-10.5942
▁중인	-10.5943
타점	-10.5944
if	-10.5953
▁낮다	-10.5953
▁08	-10.5954
▁짓을	-10.5956
▁대항	-10.5957
▁효과는	-10.5957
그레	-10.5958
ide	-10.5962
껏	-10.5962
▁낼	-10.5965
▁다음날	-10.5966
▁규	-10.5966
▁글자	-10.5966
▁앱	-10.5966
91	-10.5967
▁맞으면	-10.5968
▁기기	-10.5969
▁둘째	-10.5971
▁좌우	-10.5972
회에	-10.5975
ph	-10.5979
▁만나게	-10.5982
캠퍼스	-10.5985
▁전후	-10.5985
▁공격하는	-10.5985
했어	-10.5987
▁가능하며	-10.5988
▁싶	-10.5989
▁춘	-10.599
▁돈이	-10.599
▁부서	-10.599
▁프로듀서	-10.5993
▁Co	-10.5995
▁학생들이	-10.6
선의	-10.6
영이	-10.6004
▁노동	-10.6004
▁눈물	-10.6008
▁싸워	-10.601
▁꼬리	-10.6011
▁기동	-10.6013
▁심판	-10.6013
▁생활을	-10.6014
▁가능성도	-10.6019
▁편지	-10.6019
▁셈이다	-10.6019
팀이	-10.602
▁공급	-10.6026
스쿨	-10.6028
▁데다가	-10.603
▁카미	-10.603
▁예전에	-10.6031
▁맞게	-10.6032
▁시간대	-10.6035
▁수준이다	-10.6035
レ	-10.6035
▁출력	-10.6043
▁모모	-10.6044
▁배우는	-10.6044
병을	-10.6044
교회	-10.6046
▁지능	-10.6046
▁예비	-10.6048
▁저장	-10.6048
▁방법으로	-10.6049
▁감안하면	-10.6049
▁앉	-10.6051
▁한정으로	-10.6052
▁사항	-10.6053
▁스승	-10.6053
스틱	-10.6057
▁피격	-10.6057
▁중에서는	-10.6059
겹	-10.6059
▁손가락	-10.6061
▁수술	-10.6061
▁테이	-10.6062
ll	-10.6063
▁형사	-10.6063
웨	-10.607
▁정착	-10.6071
아의	-10.6073
▁대개	-10.6073
공을	-10.6074
▁농담	-10.6074
▁예시	-10.6075
▁귀신	-10.6075
▁입히	-10.6076
▁식물	-10.608
▁있었기	-10.608
흡	-10.6082
라기	-10.6082
▁과거에	-10.6083
▁먹이	-10.6083
▁고르	-10.6084
▁변호사	-10.6085
▁바라보	-10.6086
▁기독교	-10.6087
냐며	-10.6091
밸	-10.6095
▁독자	-10.6096
▁칭찬	-10.6097
함으로써	-10.6097
▁안티	-10.6097
▁장관	-10.6098
낙	-10.61
률이	-10.6101
웠다	-10.6102
▁얼굴이	-10.6104
▁낫	-10.6109
철도	-10.6109
▁극복	-10.6111
▁방법은	-10.6111
미네	-10.6115
ng	-10.6116
▁출마	-10.6119
▁것만	-10.6119
사카	-10.6119
▁싫어하는	-10.6121
▁부하들	-10.6124
▁고문	-10.6126
▁환승	-10.6128
▁me	-10.6131
▁다행	-10.6132
▁집에서	-10.6133
▁그라	-10.6134
▁건축	-10.6141
쇠	-10.6144
▁그렇기	-10.6148
▁외치	-10.6148
듬	-10.615
코와	-10.6154
▁정도였다	-10.6154
▁모조리	-10.6155
연구	-10.6156
▁주었다	-10.6161
▁제외하고	-10.6163
▁블로그	-10.6166
꽃	-10.6167
개발	-10.6169
▁소형	-10.6171
▁입장에서	-10.6172
텐데	-10.6173
▁소총	-10.6174
▁탱크	-10.6174
▁낸	-10.6176
사에	-10.6177
▁자세히	-10.6179
엎	-10.6181
▁어른	-10.6182
▁효율	-10.6183
▁To	-10.6187
▁제어	-10.6188
▁길어	-10.6189
▁이슬람	-10.6189
얀	-10.6192
▁엑	-10.6195
초등학교	-10.6198
▁가리	-10.62
▁대지	-10.62
OL	-10.6201
▁동부	-10.6203
▁그와	-10.6205
▁강하게	-10.6205
▁번개	-10.6207
▁시절에	-10.6209
▁말하자면	-10.6215
▁하얀	-10.6221
RA	-10.6224
슬러	-10.6224
▁보여주며	-10.6226
▁그렇지만	-10.6227
ee	-10.6228
군과	-10.623
▁겨	-10.6235
▁노멀	-10.6235
▁공사	-10.6238
▁음원	-10.6238
ock	-10.6238
▁서울특별시	-10.6241
▁펼치	-10.6241
쩍	-10.6241
했습니다	-10.6242
▁어린이	-10.6245
▁지켜보	-10.6248
▁전성기	-10.6256
민이	-10.6257
▁모르고	-10.6258
다리	-10.6258
렵	-10.6261
권의	-10.6262
▁정복	-10.6263
▁몰라도	-10.6263
▁가시	-10.6264
▁캐스팅	-10.6267
월부터	-10.6269
▁트레이드	-10.6269
▁동기	-10.6271
▁Mo	-10.6271
▁일격	-10.6273
것은	-10.6273
렸고	-10.6274
함과	-10.6276
▁44	-10.6277
음악	-10.6277
▁진실	-10.6282
▁버린다	-10.6283
▁47	-10.6283
▁키스	-10.6284
TA	-10.6286
▁덤으로	-10.6286
93	-10.6287
▁메모리	-10.6289
춰	-10.6292
▁헤비	-10.6292
ST	-10.6293
▁여담이지만	-10.6293
▁울트라	-10.6294
▁동화	-10.6295
▁제작자	-10.6297
▁사라졌다	-10.6302
▁훗날	-10.6302
▁저런	-10.6303
시와	-10.6304
▁개체	-10.6304
▁피를	-10.6307
▁아쉬운	-10.6311
▁점이다	-10.6311
▁네오	-10.6318
▁내려가	-10.6325
▁아우	-10.6325
▁고수	-10.6328
▁자동으로	-10.6329
▁Se	-10.6333
▁식사	-10.6333
▁당하는	-10.6336
▁선택지	-10.6341
▁예로	-10.6341
▁사신	-10.6342
TO	-10.6342
▁한쪽	-10.6344
▁개의	-10.6346
▁다음에	-10.6349
했으니	-10.6352
▁헛	-10.6352
▁핫	-10.6353
▁돼지	-10.6354
▁모두가	-10.6356
단체	-10.6358
부는	-10.636
▁무덤	-10.636
투스	-10.6362
▁한다면	-10.6363
쵸	-10.6363
▁방식이	-10.6364
▁아름다운	-10.6364
▁총을	-10.6364
▁공기	-10.6366
화의	-10.6366
▁가이	-10.6367
ber	-10.637
하라는	-10.6374
▁계약을	-10.6374
▁면모	-10.6374
▁웃음	-10.6375
누스	-10.6376
플러스	-10.6379
▁채워	-10.6379
▁쌍둥이	-10.6381
▁심하게	-10.6381
▁알았	-10.6384
▁새벽	-10.6385
▁충격을	-10.6387
슴	-10.6389
▁위주로	-10.639
▁호주	-10.639
니카	-10.6391
▁않	-10.6392
▁구축	-10.6393
모를	-10.6394
▁태그	-10.6397
77	-10.6397
▁킥	-10.6399
▁기여	-10.6399
▁$	-10.6401
▁취향	-10.6402
만으로도	-10.6403
▁전신	-10.6406
배우	-10.6408
▁언급되	-10.6415
▁된다는	-10.6418
▁조치	-10.6418
▁들면	-10.6419
베리	-10.6419
▁버튼	-10.6422
성으로	-10.6422
▁조성	-10.6423
과정	-10.6424
▁널	-10.6425
88	-10.643
ru	-10.6432
▁말하며	-10.6435
▁이중	-10.6436
시키면	-10.6439
▁가격이	-10.6439
▁시드	-10.6439
よ	-10.6442
됩니다	-10.6443
61	-10.6443
av	-10.6447
TS	-10.6448
▁해리	-10.645
성에	-10.6452
▁발언을	-10.6453
▁죽이려	-10.6456
▁1993	-10.6456
▁절대로	-10.6456
바람	-10.6456
▁아니라고	-10.6456
사항	-10.6457
▁뭘	-10.6457
▁명중률	-10.6458
ud	-10.6458
▁공식적으로	-10.6459
▁이전의	-10.646
▁*	-10.646
▁st	-10.6461
▁널리	-10.6463
▁갈리	-10.6468
▁가져가	-10.6468
▁안경	-10.647
력과	-10.6471
▁별개로	-10.6472
▁네가	-10.6473
▁보안	-10.6476
파이어	-10.6476
▁등과	-10.6477
▁할머니	-10.6477
되거나	-10.6478
▁무릎	-10.6478
했다면	-10.6479
▁흐름	-10.648
▁하락	-10.6484
▁64	-10.6485
코는	-10.649
▁An	-10.6491
▁누르	-10.6493
▁걸쳐	-10.6493
▁이것도	-10.6493
경우	-10.6494
세요	-10.6495
▁발매된	-10.6496
▁일본인	-10.6499
▁작가의	-10.6499
오스	-10.6499
시간이	-10.6499
는걸	-10.65
발을	-10.65
▁터키	-10.6501
▁체계	-10.6502
위원	-10.6503
▁김태	-10.6504
▁저녁	-10.6505
▁믿고	-10.6506
▁전문가	-10.6506
▁41	-10.6508
판에서	-10.6508
그라	-10.6509
▁1992	-10.651
미야	-10.6512
▁지우	-10.6515
▁09	-10.6516
▁열쇠	-10.6516
▁올리는	-10.6518
▁않는다는	-10.6518
▁권한	-10.6523
조건	-10.6523
▁넣고	-10.6523
▁->	-10.6529
앞	-10.6535
공업	-10.6536
행위	-10.6537
툰	-10.654
ark	-10.6546
번이	-10.6548
▁일으킨	-10.6549
▁방에	-10.655
ect	-10.6551
직을	-10.6552
are	-10.6555
▁MVP	-10.6558
▁가야	-10.6558
▁폴란드	-10.6558
▁합의	-10.6559
우를	-10.656
었기	-10.6562
her	-10.6563
형으로	-10.6564
▁드는	-10.6566
▁랭킹	-10.6567
▁구하기	-10.6569
▁손해	-10.6571
리티	-10.6571
▁자폭	-10.6574
▁후반부	-10.6575
▁수익	-10.6576
▁패턴이	-10.6577
▁국회	-10.6578
▁지도자	-10.6579
혔	-10.658
▁루이	-10.6585
왔던	-10.6587
▁내는	-10.6588
▁1.5	-10.6589
▁주말	-10.6589
되던	-10.659
▁서부	-10.6595
▁신기	-10.6596
▁고기	-10.6596
현이	-10.6596
▁수도권	-10.6597
▁원소	-10.6599
계에서	-10.66
▁세계를	-10.6605
▁썼다	-10.6605
▁유형	-10.6605
▁누나	-10.6609
▁터치	-10.6609
▁동시	-10.6611
팟	-10.6612
햄	-10.6612
▁아닌가	-10.6613
대전	-10.6617
▁험	-10.6618
▁되었다고	-10.6618
뒀	-10.6621
▁대사가	-10.6622
▁곽	-10.6623
▁신설	-10.6624
▁07	-10.6625
▁사람에게	-10.6626
▁북부	-10.6627
▁완벽한	-10.6627
받는다	-10.6627
▁아마도	-10.6628
▁지역에서	-10.663
▁소지	-10.663
▁챙겨	-10.663
던지	-10.6633
았고	-10.6635
▁Al	-10.6639
밭	-10.6639
▁도주	-10.6642
▁후속	-10.6643
▁어떠한	-10.6648
82	-10.6649
▁브레이크	-10.6649
오르	-10.6649
힌다	-10.6653
▁부위	-10.6653
▁명중	-10.6656
▁네덜란드	-10.6657
▁규칙	-10.6658
움을	-10.6658
▁보관	-10.6658
▁감독의	-10.6659
야구	-10.6659
계열	-10.666
▁이전까지	-10.6661
오의	-10.6661
▁일일	-10.6664
순양함	-10.6667
아니	-10.6667
▁선생	-10.6668
▁토론	-10.6669
▁탓	-10.6674
▁의료	-10.6677
크리	-10.6678
▁펠	-10.6679
▁신비	-10.6682
▁되었으며	-10.6686
▁가려	-10.6687
님이	-10.6689
▁들은	-10.6691
▁프라이	-10.6698
▁출판	-10.6703
종이	-10.6706
국이	-10.6706
▁원작에서	-10.6706
▁행적	-10.6713
▁레벨이	-10.6714
▁나이가	-10.6715
▁횡	-10.6716
▁검찰	-10.6716
▁개성	-10.6717
▁취임	-10.6717
▁당연한	-10.6719
di	-10.6719
▁쇠	-10.672
▁가톨릭	-10.6721
▁게시판	-10.6722
▁니시	-10.6723
▁남쪽	-10.6725
▁03	-10.6726
궤	-10.6728
끔	-10.6729
our	-10.673
▁수록곡	-10.673
랙	-10.6732
▁게이트	-10.6733
산업	-10.6737
▁사라진	-10.6737
▁이끄는	-10.674
▁무시하고	-10.6743
▁앉아	-10.6743
▁물어보	-10.6744
▁들었다	-10.6744
시험	-10.6745
▁역사상	-10.6746
콩	-10.6749
▁브로	-10.6754
▁죽었	-10.6756
주의자	-10.6756
▁가로	-10.6757
몸	-10.6757
▁게이	-10.6765
▁적절한	-10.6767
하였는데	-10.6768
SE	-10.6772
▁구석	-10.6772
유닛	-10.6774
▁투구	-10.6775
▁←	-10.6781
▁정찰	-10.6784
▁캠페인	-10.6785
뎀	-10.6785
▁흔적	-10.6787
▁레이드	-10.679
▁있었을	-10.6791
▁개입	-10.6796
보이는	-10.6797
▁지역의	-10.6798
86	-10.6801
▁가량	-10.6802
범위	-10.6803
▁멈추	-10.6803
뇌	-10.6803
▁결성	-10.6806
▁생긴다	-10.6809
▁시절의	-10.6811
▁바이러스	-10.6814
▁리치	-10.6815
▁골든	-10.6815
▁이래	-10.6819
▁매직	-10.682
▁스타크래프트	-10.6822
▁타락	-10.6824
▁보자	-10.6825
▁음반	-10.6826
▁컬러	-10.6827
▁후배	-10.6828
푼	-10.6831
왕이	-10.6834
▁브레	-10.6838
▁과연	-10.684
들인	-10.6842
▁희귀	-10.6843
▁호위	-10.6845
▁그러다가	-10.6853
▁인하여	-10.6854
가면서	-10.6855
▁세이브	-10.6857
▁궁극기	-10.6858
▁묶	-10.686
▁베스트	-10.686
전으로	-10.6864
▁다름없	-10.6865
▁이끌고	-10.6866
け	-10.6867
▁승강장	-10.6868
▁참석	-10.6868
▁좋았	-10.6869
▁되었는데	-10.687
회말	-10.6871
테르	-10.6872
▁계단	-10.6872
▁이용해서	-10.6873
▁유사한	-10.6874
▁평소에	-10.6875
▁목소리가	-10.6876
▁활성화	-10.6877
▁뒤에서	-10.6877
▁v	-10.6877
▁나타난다	-10.6882
▁정신을	-10.6882
▁넷	-10.6883
▁일찍	-10.6883
▁신라	-10.6883
▁당했다	-10.6884
장갑	-10.6884
71	-10.6885
▁태어나	-10.6886
▁때리	-10.6887
▁손님	-10.6888
년생	-10.6888
▁AC	-10.6888
▁눌러	-10.6895
▁나가는	-10.6896
▁누적	-10.6897
크스	-10.6898
!'	-10.6899
▁on	-10.69
▁잡아먹	-10.6903
▁직전에	-10.6904
▁벌어지	-10.6905
▁전부터	-10.6906
▁카트	-10.6907
▁비싼	-10.6907
옷	-10.6909
해줄	-10.691
▁축제	-10.6913
우의	-10.6913
▁괜찮	-10.6914
되었다고	-10.6914
▁실망	-10.6915
▁많기	-10.6915
▁김민	-10.6919
옴	-10.6923
주지	-10.6925
ue	-10.6932
분에	-10.6933
본부	-10.6934
MO	-10.6938
끄러	-10.6938
▁윙	-10.6942
▁re	-10.6947
판은	-10.6948
▁前	-10.6949
족의	-10.6949
▁멕시코	-10.6951
▁방송에서	-10.6951
▁그러자	-10.6952
▁윈	-10.6953
▁아직까지	-10.6953
▁고작	-10.6955
병이	-10.6956
밤	-10.6957
▁페르	-10.6957
▁처형	-10.6958
▁적당히	-10.696
조가	-10.6965
▁찍은	-10.6967
테니	-10.6969
줌	-10.6969
▁보여줬다	-10.697
워서	-10.697
▁죽이고	-10.6973
르크	-10.6974
▁이로	-10.6974
▁업체	-10.6976
붕	-10.6981
보자	-10.6983
▁49	-10.6984
み	-10.6988
▁세상을	-10.6989
▁명령을	-10.6991
▁SKT	-10.6993
묵	-10.6994
네임	-10.6994
▁숨겨진	-10.6996
▁정수	-10.6997
▁열어	-10.6999
▁국내에서	-10.6999
▁짝	-10.7002
▁살리	-10.7002
▁소위	-10.7005
둬	-10.7007
▁밝혀진	-10.7009
그러	-10.7017
▁커리어	-10.7018
▁했다는	-10.7021
해보면	-10.7021
io	-10.7021
▁시위	-10.7024
▁체크	-10.7024
▁스마트폰	-10.7026
▁탁	-10.7027
▁1988	-10.7031
▁갈라	-10.7032
▁성능은	-10.7033
▁끄	-10.7035
ジ	-10.7035
▁캐논	-10.7037
▁물질	-10.7037
▁프레임	-10.7042
▁클래식	-10.7044
킴	-10.7044
▁도와	-10.7045
스톤	-10.7048
▁무관	-10.7049
▁밝	-10.7055
회차	-10.7055
▁용도로	-10.7056
▁민주당	-10.7059
덤	-10.7063
로드	-10.7067
96	-10.707
들과는	-10.707
작전	-10.7074
▁명성	-10.7075
수와	-10.7075
시에는	-10.7082
▁연예인	-10.7082
▁다수의	-10.7082
▁물론이고	-10.7085
▁시청률	-10.7086
했기에	-10.7089
▁사제	-10.709
▁팬들에게	-10.7091
임이	-10.7094
▁자막	-10.7095
▁뱀	-10.7096
▁거치	-10.7097
97	-10.7098
▁훈	-10.7099
▁하차	-10.71
▁이제는	-10.7102
▁가고	-10.7102
병기	-10.7105
▁융합	-10.7108
▁전진	-10.7108
▁06	-10.7108
월드	-10.7114
ey	-10.7115
▁이용하는	-10.7118
▁포격	-10.7124
비트	-10.7127
깐	-10.7128
하더라도	-10.7129
▁행보	-10.713
▁취미	-10.7131
▁간부	-10.7131
▁눈물을	-10.7132
▁그곳	-10.7133
▁고스트	-10.7133
▁아니라는	-10.7135
▁으	-10.7136
▁부분에서	-10.7137
GB	-10.7137
73	-10.7139
▁잡히	-10.7139
▁해상	-10.714
안이	-10.7141
▁첨	-10.7143
마트	-10.7143
팬들	-10.7144
ち	-10.7148
▁시즈	-10.715
▁KT	-10.7153
▁래	-10.7154
▁맡기	-10.7154
▁죽이는	-10.7157
▁디지털	-10.7158
▁법률	-10.7158
▁부분에	-10.7158
▁재정	-10.7159
▁증오	-10.716
▁성공한다	-10.7162
벼	-10.7165
보기	-10.7166
ES	-10.7167
즈미	-10.7168
▁후방	-10.717
▁돋	-10.7174
▁확인할	-10.7174
▁시선	-10.7175
▁임무를	-10.7175
▁생존자	-10.7175
▁묘지	-10.7176
▁금속	-10.7176
▁중요하다	-10.7178
▁정글	-10.7181
▁컵	-10.7182
▁몰락	-10.7184
돔	-10.7186
구에	-10.7188
▁좋을	-10.7189
▁빡	-10.7191
쿨	-10.7193
감독	-10.7196
▁흘리	-10.7197
헬	-10.7197
놀	-10.7197
▁구사	-10.7201
▁슬롯	-10.7202
구리	-10.7203
▁나쁘	-10.7204
▁자국	-10.7204
ME	-10.7207
▁간의	-10.7207
▁이외에	-10.7207
▁샘	-10.7211
▁알바	-10.7213
▁생략	-10.7217
▁까지	-10.7217
마츠	-10.7217
찍	-10.7223
▁OST	-10.7223
キ	-10.7224
▁세이버	-10.7231
▁갤	-10.7231
▁높고	-10.7232
▁닫	-10.7234
▁많지	-10.7235
:30	-10.7235
▁국왕	-10.7237
▁내장	-10.7238
▁인격	-10.7245
▁기회	-10.7245
있고	-10.7251
SC	-10.7252
레인저	-10.7252
▁느낄	-10.7263
▁본다	-10.7264
달러	-10.7264
▁읽어	-10.7266
▁죽기	-10.7267
▁은하	-10.7267
▁내주	-10.7268
▁둘은	-10.7268
해주고	-10.7273
▁흥미	-10.7274
▁개정	-10.7275
▁당시에	-10.7277
놓았다	-10.7281
륙	-10.7281
▁Bo	-10.7283
▁클랜	-10.7283
트론	-10.7283
▁세운	-10.7284
▁얻기	-10.7284
▁소원	-10.7285
▁어택	-10.7286
▁사건의	-10.7287
▁돌아와	-10.7287
선거	-10.7291
폭탄	-10.7294
▁칼리	-10.7296
▁미소	-10.7297
IS	-10.7297
▁동일하다	-10.7298
▁압도	-10.7298
▁사용하여	-10.7299
▁뛰어나	-10.73
▁플레이오프	-10.7301
▁버프를	-10.7304
he	-10.7308
카를	-10.7308
겉	-10.731
▁나무위키	-10.7311
▁디버프	-10.7311
소가	-10.7316
당할	-10.7316
▁동굴	-10.7317
영상	-10.732
▁가볍게	-10.7321
나이트	-10.7321
▁런던	-10.7321
구역	-10.7325
브리	-10.7326
▁판정이	-10.7329
▁독자들	-10.733
▁작화	-10.733
iz	-10.7331
ure	-10.7335
▁시계	-10.7336
▁말투	-10.7339
여자	-10.7339
▁차이점	-10.7342
▁유닛이	-10.7342
▁아기	-10.7343
▁논리	-10.7343
▁가끔씩	-10.7344
▁않겠	-10.7349
▁강요	-10.7349
▁멘탈	-10.735
▁이미지가	-10.735
▁고위	-10.7354
▁사이의	-10.7355
▁이어지	-10.7357
▁들여	-10.7359
들보다	-10.7361
▁노인	-10.7363
▁들려	-10.7365
▁일본군	-10.7365
▁등은	-10.7366
▁좋고	-10.7367
▁치는	-10.7368
즈는	-10.7368
▁자리잡	-10.7371
81	-10.7372
술사	-10.7373
▁나치	-10.7374
▁i	-10.7375
▁비교해	-10.7379
▁스카	-10.7383
▁이라고	-10.7385
겔	-10.7388
▁편입	-10.739
▁손으로	-10.7391
▁거인	-10.7393
검사	-10.7397
▁그건	-10.7398
▁또다시	-10.7399
▁뜻을	-10.74
▁별도	-10.74
▁선수들이	-10.74
▁발달	-10.7402
장비	-10.7403
▁작곡가	-10.7403
▁무렵	-10.7405
지대	-10.7406
디스	-10.7409
▁뒤집어	-10.7411
▁유로	-10.7411
▁외전	-10.7413
포스	-10.7414
▁썰	-10.7414
▁캐릭터는	-10.7418
▁문재인	-10.7418
▁거기서	-10.7419
▁진짜로	-10.7421
로서는	-10.7421
▁숨기	-10.7421
▁사자	-10.7423
춤	-10.7427
▁나아	-10.7427
ni	-10.7428
▁식량	-10.7436
▁팝	-10.7436
▁해골	-10.7436
▁매니저	-10.7437
rd	-10.7441
76	-10.7443
▁해주는	-10.7443
▁미디어	-10.7447
▁곳은	-10.7456
▁느낀	-10.7466
▁블러드	-10.7467
▁듣	-10.7471
플래	-10.7472
▁네이	-10.7476
포드	-10.7477
니시	-10.7477
▁전선	-10.7478
▁주포	-10.7481
▁김현	-10.7481
▁스턴	-10.7481
혐	-10.7483
▁그러다	-10.7487
▁드라	-10.7488
▁바꾼	-10.7488
하이	-10.7489
▁거라	-10.7491
-0	-10.7493
▁치유	-10.7495
▁간신히	-10.7496
▁동쪽	-10.7496
▁알아서	-10.7497
▁키워	-10.7498
쾌	-10.75
▁죽음의	-10.75
네가	-10.7501
▁총리	-10.7503
大	-10.7504
▁신호	-10.7504
▁장면에서	-10.7505
▁잡은	-10.7505
▁SR	-10.751
▁데에	-10.7514
▁추구	-10.7516
급의	-10.7516
▁경기력	-10.7516
US	-10.7521
▁나오며	-10.7522
ain	-10.7522
▁찌	-10.7523
▁털어	-10.7523
▁부리	-10.7523
ear	-10.7525
▁병기	-10.7526
▁흰	-10.7527
▁상급	-10.7527
▁프로토스	-10.7528
▁만날	-10.7528
▁하단	-10.7528
▁난입	-10.7532
것이다	-10.7539
▁슈팅	-10.7542
MI	-10.7544
▁아일랜드	-10.7545
▁우수	-10.7547
▁혐의	-10.7548
▁생각해보면	-10.7549
▁대표팀	-10.755
ty	-10.7553
기에는	-10.7554
하진	-10.7554
구의	-10.7555
▁아케이드	-10.7555
▁상관없	-10.7555
스트로	-10.7556
▁들어가면	-10.756
하듯	-10.756
▁나오면	-10.7564
▁협상	-10.7565
▁이정	-10.7565
만은	-10.7566
전선	-10.7568
년만에	-10.7569
▁도끼	-10.7569
▁캡	-10.757
키는	-10.757
▁움직이는	-10.7571
미와	-10.7571
▁했었다	-10.7572
▁Un	-10.7576
▁이외의	-10.7579
하기는	-10.758
▁스튜디오	-10.7585
▁느린	-10.7585
▁외계인	-10.7585
▁종이	-10.7585
키와	-10.7586
▁이식	-10.759
▁☆	-10.7591
렴	-10.7591
까진	-10.7591
달라는	-10.7592
▁때가	-10.7593
▁상업	-10.7594
▁개량	-10.7596
▁위상	-10.7596
▁걸고	-10.7597
▁그러니까	-10.7597
/4	-10.7598
▁00	-10.76
▁소문	-10.7602
▁레이더	-10.7602
중이다	-10.7603
】	-10.7605
▁과목	-10.7605
▁펀치	-10.7606
▁갖춘	-10.7606
>	-10.7608
였을	-10.7609
▁일반인	-10.761
▁찌르	-10.7611
▁46	-10.7611
▁65	-10.7611
▁딴	-10.7613
▁늦게	-10.762
▁장점이	-10.7621
ッ	-10.7624
▁유희왕	-10.7624
▁수류탄	-10.7625
타카	-10.7625
▁Br	-10.7626
ci	-10.7627
▁똥	-10.7628
즈와	-10.7629
땅	-10.7629
▁이겨	-10.7632
▁약간의	-10.7632
▁이전에는	-10.7633
え	-10.7634
▁트럼프	-10.7634
까지도	-10.7637
▁티어	-10.7637
▁위하여	-10.7638
▁룬	-10.7641
▁데드	-10.7642
▁적다	-10.7643
▁국립	-10.7645
▁활발	-10.7646
자책	-10.7646
▁전쟁이	-10.7647
▁공격할	-10.7648
벌레	-10.765
층에	-10.765
ind	-10.765
졌으며	-10.7651
▁공개되었다	-10.7652
캣	-10.7654
▁메이저	-10.7655
▁결심	-10.7659
▁격추	-10.7661
▁1,2	-10.7665
▁금방	-10.7667
▁모래	-10.7669
▁흑인	-10.7675
▁오전	-10.7677
중앙	-10.7678
라이더	-10.7681
ace	-10.7681
뤄	-10.7684
받을	-10.7684
▁MS	-10.7686
점은	-10.7687
ex	-10.7689
▁묘사가	-10.769
▁비상	-10.7696
▁귀환	-10.7696
▁전반적으로	-10.7697
▁인물로	-10.7697
▁전철	-10.7698
▁칭호	-10.7699
▁소유자	-10.77
▁PD	-10.7707
▁슈트	-10.7708
▁들어갔다	-10.7709
~5	-10.7709
▁어려움	-10.7709
▁1:1	-10.771
미는	-10.7711
▁않았을	-10.7712
▁위치에	-10.7712
▁180	-10.7712
▁주식	-10.7714
▁켜	-10.7717
▁나아가	-10.7719
▁캡틴	-10.7725
▁않도록	-10.7726
▁이란	-10.7727
▁창작	-10.7728
▁특집	-10.7728
▁더빙	-10.7729
▁지경	-10.773
oo	-10.7731
▁사랑을	-10.7732
씌	-10.7735
MP	-10.7735
▁1991	-10.774
▁방출	-10.7745
▁디지몬	-10.7745
▁바깥	-10.7745
론을	-10.7745
모스	-10.7745
▁시그	-10.7746
▁단편	-10.7746
ix	-10.7748
듯한	-10.7748
일본	-10.7751
▁머리가	-10.7754
▁시로	-10.7756
▁스탠	-10.7756
▁앞두고	-10.7757
▁채팅	-10.7757
▁상성	-10.7758
▁충실	-10.7759
▁출연한	-10.7759
▁톰	-10.7762
▁무척	-10.7763
▁켈	-10.7768
▁총알	-10.7769
▁식당	-10.7771
버그	-10.7771
▁크리스마스	-10.7775
▁어렵지	-10.7775
▁꿈을	-10.7778
▁김종	-10.7781
フ	-10.7785
▁원칙	-10.7785
▁거다	-10.7786
▁2~3	-10.7787
▁스페이스	-10.7788
:0	-10.779
▁전주	-10.7791
▁사용했다	-10.7792
▁주제에	-10.7793
▁신의	-10.7793
이었으며	-10.7793
▁with	-10.7795
▁체인	-10.7797
▁교장	-10.7798
▁세계에서	-10.7798
급으로	-10.7802
▁녹색	-10.7803
인물	-10.7804
▁램	-10.7805
▁곡이	-10.7806
▁맛이	-10.7806
▁항의	-10.7807
▁600	-10.7808
▁플레	-10.7808
▁기용	-10.7809
▁애정	-10.781
▁사용되는	-10.7812
▁고교	-10.7812
▁빌려	-10.7815
▁시켜	-10.7815
▁보유하고	-10.7815
▁문단	-10.7816
▁풀리	-10.7819
였다는	-10.7823
▁관객	-10.7825
▁기적	-10.7826
덜	-10.783
나서	-10.7831
아리	-10.7831
▁중국의	-10.7841
▁집착	-10.7841
▁식의	-10.7842
주세요	-10.7842
▁지원을	-10.7844
번의	-10.7846
끝	-10.7847
▁유닛을	-10.7849
▁건지	-10.7851
▁유저들은	-10.7852
해준	-10.7853
ore	-10.7854
▁집을	-10.7856
▁아니냐	-10.7856
▁오버워치	-10.7856
▁구해	-10.7857
본다	-10.7859
▁!	-10.786
에서부터	-10.7861
▁최신	-10.7863
▁토끼	-10.7864
셉	-10.7866
줘서	-10.7867
▁세종	-10.7869
▁예산	-10.787
바닥	-10.7874
섹	-10.7874
으로서의	-10.7876
▁혐오	-10.7877
▁장전	-10.7885
▁과정을	-10.7886
실에	-10.7886
天	-10.7887
▁THE	-10.7887
▁사막	-10.7891
▁리듬	-10.7893
롭게	-10.7893
▁마린	-10.7893
▁코코	-10.7893
SP	-10.7894
▁1989	-10.7895
▁넘겨	-10.7895
토의	-10.7897
▁악당	-10.7897
▁입을	-10.7898
▁확실한	-10.79
▁토르	-10.79
▁웅	-10.7901
사랑	-10.7902
▁남기	-10.7903
MB	-10.7906
▁카타	-10.7906
▁스프링	-10.7907
▁바위	-10.7907
▁전시	-10.7907
제의	-10.7911
▁납	-10.7913
뭔	-10.7916
▁말하고	-10.7917
田	-10.7917
▁아닐	-10.7919
▁구글	-10.792
교사	-10.792
▁오지	-10.7922
▁짜증	-10.7929
▁탈퇴	-10.793
▁느려	-10.7931
▁투어	-10.7931
▁사이버	-10.7932
▁상태이상	-10.7932
▁사망한	-10.7933
잇	-10.7934
▁감독은	-10.7935
▁자극	-10.7937
▁잘못된	-10.7937
▁흔들	-10.794
▁오직	-10.794
사고	-10.7941
타니	-10.7942
비치	-10.7943
켈	-10.7945
▁점수를	-10.7947
а	-10.7948
▁La	-10.7956
문학	-10.7957
▁시라	-10.7958
아를	-10.7958
카운트	-10.7958
▁부른	-10.7959
위원장	-10.7959
▁출신의	-10.7961
▁문구	-10.7963
▁시청	-10.7964
▁유니	-10.7964
었는지	-10.7964
좋	-10.7965
62	-10.7966
▁스틸	-10.7967
▁it	-10.797
▁오라	-10.7972
▁음모	-10.7972
비는	-10.7973
▁서쪽	-10.7976
스턴	-10.7977
▁분신	-10.7977
CE	-10.7977
▁아니기	-10.798
계에	-10.7983
▁51	-10.7988
▁초기에는	-10.7988
▁캔	-10.7988
헨	-10.7989
▁빛을	-10.799
-11	-10.7992
▁소속사	-10.7995
▁완벽하게	-10.7996
ire	-10.7997
▁책을	-10.7998
▁불렀다	-10.8001
EL	-10.8002
▁예언	-10.8005
▁사라진다	-10.8007
▁연구소	-10.8007
▁52	-10.8009
▁일행이	-10.8009
▁은행	-10.8009
▁게임에	-10.801
▁메리	-10.8011
▁받으며	-10.8011
▁낚시	-10.8012
▁도적	-10.8014
▁취급을	-10.8015
아와	-10.8017
정도로	-10.8017
▁목숨	-10.8018
▁패션	-10.8018
▁하나만	-10.8019
소녀	-10.802
진은	-10.802
▁김재	-10.8023
▁화를	-10.8023
루타	-10.8025
▁올렸다	-10.8028
▁반사	-10.8028
▁업적	-10.803
▁메카	-10.8032
▁멤버들이	-10.8033
▁이집트	-10.8033
▁관중	-10.8033
▁노선이	-10.8034
TE	-10.8035
해야한다	-10.8037
▁신앙	-10.8037
▁하나씩	-10.8039
II	-10.8042
▁그럼	-10.8042
▁We	-10.8045
▁사라져	-10.8045
렸던	-10.8046
▁1~2	-10.8046
▁미국에서	-10.8047
▁사냥꾼	-10.8053
▁휴식	-10.8054
대와	-10.8057
▁포로	-10.8061
▁중독	-10.8062
▁화장실	-10.8062
▁구경	-10.8071
▁괜	-10.8072
▁유독	-10.8072
▁흐르	-10.8072
▁잉글랜드	-10.8072
mp	-10.8074
▁빗	-10.8077
▁이유를	-10.8078
▁원인이	-10.8079
열차	-10.808
▁심각	-10.8081
▁라이프	-10.8082
쌍	-10.8083
▁전체를	-10.8084
▁빛의	-10.8085
▁거리를	-10.8087
▁당하고	-10.8087
윙	-10.8088
▁최다	-10.809
시키려	-10.809
▁나면	-10.8091
▁계기로	-10.8092
▁트라이	-10.8094
▁Pro	-10.8096
▁도망가	-10.8101
▁비교하면	-10.8102
▁생각한다	-10.8105
때마다	-10.8107
▁모티브	-10.8108
▁청소년	-10.8109
▁색깔	-10.8114
잡이	-10.8116
▁SM	-10.8119
▁r	-10.8119
믹스	-10.8121
연맹	-10.8124
기록	-10.8127
-01	-10.8128
되어있다	-10.8128
▁생기는	-10.8131
me	-10.8132
같	-10.8136
▁거듭	-10.8136
▁위치해	-10.8137
▁강도	-10.8137
▁찍는	-10.8146
했었	-10.8147
▁답변	-10.8149
▁인디	-10.815
▁마술	-10.8151
▁마키	-10.8152
▁아들이	-10.8152
▁그럭저럭	-10.8156
▁HD	-10.8156
팽	-10.8157
리얼	-10.8161
퀘	-10.8162
▁위주	-10.8165
▁하나도	-10.8168
▁적군	-10.8169
▁화려한	-10.8169
▁도서관	-10.8169
▁사후	-10.817
쥐	-10.8174
앤	-10.8177
▁사형	-10.8184
돼서	-10.8184
▁왈	-10.8186
▁이번에는	-10.8187
▁공공	-10.8187
▁밑에	-10.8187
▁깡	-10.8187
▁코인	-10.8188
▁급격	-10.819
▁커피	-10.819
UN	-10.8194
▁카스	-10.8195
▁기믹	-10.8195
▁엑스트라	-10.8199
▁치르	-10.82
버렸고	-10.8201
▁이슈	-10.8202
년대에	-10.8202
▁드레	-10.8203
꺼	-10.8204
▁화성	-10.8205
▁키타	-10.8211
기보다는	-10.8212
코드	-10.8212
▁임대	-10.8214
마스	-10.8215
▁아래에	-10.8215
▁것인데	-10.8215
▁상관없이	-10.8217
▁되기도	-10.822
▁마법소녀	-10.8221
▁봤	-10.8221
코프	-10.8226
▁따온	-10.8228
▁다를	-10.823
▁유니폼	-10.823
▁유물	-10.8232
▁숙련	-10.8233
기업	-10.8234
ice	-10.8236
▁되었을	-10.8237
▁Mi	-10.8238
껴	-10.824
▁기종	-10.8241
▁레이스	-10.8243
▁먹은	-10.8243
▁드림	-10.8244
▁심지어는	-10.8248
▁지속시간	-10.8248
▁대리	-10.8249
▁스크	-10.825
つ	-10.8251
▁공성	-10.8251
타르	-10.8255
번을	-10.8255
▁업로드	-10.8263
▁마약	-10.8263
순환	-10.8264
og	-10.8265
▁뜻이다	-10.8266
▁벌인	-10.8267
da	-10.8267
▁사이즈	-10.8267
▁이끌어	-10.8268
▁허락	-10.8271
▁드물	-10.8273
딸	-10.8275
▁물러	-10.8278
▁일이다	-10.8279
▁IS	-10.8281
IA	-10.8281
▁스팀	-10.8282
▁오사카	-10.8283
▁진보	-10.8284
▁이상이	-10.8285
▁판매량	-10.8286
▁엘리트	-10.8291
▁봐서	-10.8293
▁김동	-10.8294
▁요약	-10.8294
▁For	-10.8295
▁오늘날	-10.8297
▁임신	-10.8301
▁선전	-10.8301
▁인물이다	-10.8301
▁없다면	-10.8305
▁남녀	-10.8305
▁잉	-10.8305
▁들었	-10.8309
▁확대	-10.8312
▁시스템이	-10.8312
▁중립	-10.8312
▁취약	-10.8313
으로만	-10.8315
▁1970	-10.8318
▁해명	-10.8319
▁누르면	-10.8321
▁냄새	-10.8325
조의	-10.8331
싶	-10.8331
▁것이며	-10.8332
▁사이드	-10.8332
-6	-10.8336
▁담배	-10.8338
▁이탈	-10.8339
▁찾을	-10.834
▁리얼	-10.834
con	-10.8341
▁아이스	-10.8345
▁커다란	-10.8347
젤리	-10.8347
▁커녕	-10.8348
큰	-10.8349
루수	-10.8349
▁크리스탈	-10.835
▁잃어	-10.8351
▁미사	-10.8353
치와	-10.8353
▁용서	-10.8354
▁자금	-10.8356
▁교류	-10.8358
▁공허	-10.8358
▁삼진	-10.8361
▁허리	-10.8365
▁역을	-10.8365
▁발생한다	-10.8367
▁넣은	-10.8368
▁얻고	-10.8371
▁주역	-10.8374
호와	-10.8375
▁듣는	-10.8375
증을	-10.8376
ick	-10.8376
▁매장	-10.8379
▁재밌	-10.8379
▁덩치	-10.838
▁몽골	-10.8383
▁새끼	-10.8384
▁엿	-10.8386
▁한번에	-10.8386
▁잠수함	-10.839
▁와일드	-10.839
ass	-10.8392
▁형상	-10.8392
실에서	-10.8393
▁많지만	-10.8395
▁된다고	-10.8395
ft	-10.8396
▁공룡	-10.8398
▁장면은	-10.8399
엔터테인먼트	-10.84
회초	-10.8401
▁빌리	-10.8401
▁닭	-10.8401
타의	-10.8402
▁뒤집	-10.8403
▁풀려	-10.8406
▁그들이	-10.8406
▁스톤	-10.8408
군으로	-10.8409
▁아이언	-10.8409
▁떠올리	-10.8411
테스	-10.8415
OT	-10.8416
▁사무	-10.8422
▁영주	-10.8424
▁애매한	-10.8424
▁성립	-10.8425
▁아이를	-10.8426
▁방지	-10.8428
보병	-10.8429
▁베어	-10.8429
▁온다	-10.8431
루를	-10.8434
▁출입	-10.8435
▁아서	-10.8437
▁문서를	-10.8437
▁05	-10.8438
▁공격한다	-10.8447
타리	-10.8449
0000	-10.8453
챙	-10.8453
우와	-10.8453
▁막는	-10.8455
▁연대	-10.8455
▁CJ	-10.8456
▁후반부에	-10.8456
▁04	-10.8457
▁올해	-10.8459
▁kt	-10.8459
▁미스터	-10.846
▁있음을	-10.846
▁의견도	-10.8461
▁우수한	-10.8463
지방	-10.8465
▁분명히	-10.8467
▁기량	-10.8472
▁몬스터를	-10.8472
▁웨이	-10.8474
▁해준다	-10.8475
▁뱀파이어	-10.8476
▁My	-10.8477
▁따지	-10.8478
초간	-10.8481
▁토벌	-10.8481
▁해피	-10.8485
▁대단한	-10.8488
▁혹시	-10.8489
▁예정이다	-10.849
▁그들은	-10.849
▁매년	-10.8491
▁내성	-10.8492
▁SD	-10.8494
힘	-10.8494
▁저지른	-10.8497
▁○	-10.8498
▁곤란	-10.8504
▁대회에서	-10.8513
▁뿔	-10.8519
▁존재감	-10.852
▁있었다는	-10.852
령을	-10.8522
부르크	-10.8523
▁남북	-10.8523
▁나선	-10.8529
▁증가한다	-10.853
▁개시	-10.8531
PS	-10.8533
▁공세	-10.8534
▁닥	-10.8535
▁Con	-10.8535
▁거점	-10.8537
▁즉사	-10.8537
▁완결	-10.8539
▁로즈	-10.854
OO	-10.8542
▁빼면	-10.8544
▁록맨	-10.8545
레이드	-10.8547
▁의미한다	-10.8548
▁무력화	-10.855
차례	-10.8551
▁주인공은	-10.8552
쿤	-10.8552
▁배트맨	-10.8552
▁데몬	-10.8553
보인다	-10.8553
▁점도	-10.8555
▁공무원	-10.8555
▁언급된	-10.8555
끄	-10.8556
RP	-10.8559
▁도박	-10.856
▁다닌다	-10.8562
경제	-10.8563
▁피아노	-10.8564
▁기울	-10.8564
▁커플	-10.8566
▁좁	-10.857
す	-10.8573
▁청소	-10.8574
▁잔뜩	-10.8574
먼트	-10.8578
레이크	-10.8579
-15	-10.8579
이어서	-10.8579
▁현상이	-10.8581
▁권리	-10.8582
리언	-10.8582
매치	-10.8583
▁정확하게	-10.8584
찔	-10.8585
son	-10.8585
old	-10.8589
▁철수	-10.8589
▁루카	-10.8596
▁영상이	-10.8599
해질	-10.8603
▁넌	-10.8604
▁아이콘	-10.8606
▁쓰러뜨리	-10.8607
▁스트라이크	-10.8607
보험	-10.8609
▁트롤	-10.8609
▁적지	-10.8611
▁모자라	-10.8613
▁언급이	-10.8613
▁상대에게	-10.8614
▁불을	-10.8617
ave	-10.8618
■	-10.8618
졌지만	-10.862
▁아니라면	-10.8621
▁결과는	-10.8622
▁체육	-10.8623
ian	-10.8623
▁존재를	-10.8624
▁맛있	-10.8624
아키	-10.8625
▁살았	-10.8626
▁이루어져	-10.8627
月	-10.8629
박물관	-10.863
▁무기가	-10.8632
ti	-10.8632
▁의견을	-10.8633
실로	-10.8634
▁것일	-10.8636
▁바닥에	-10.8637
▁왕이	-10.8639
투수	-10.8639
썬	-10.864
▁더군다나	-10.864
▁시내버스	-10.8641
tic	-10.8643
▁피할	-10.8644
▁불사	-10.8645
▁반동	-10.8646
▁유효	-10.8646
훈련	-10.8647
패로	-10.8648
닫	-10.8651
▁화물	-10.8652
▁물을	-10.8652
▁색상	-10.8652
▁얻게	-10.8652
▁부문	-10.8654
▁후계자	-10.8654
▁경기장	-10.8656
걸로	-10.8659
III	-10.866
▁무사히	-10.8661
▁꿀	-10.8662
▁싫	-10.8666
▁국적	-10.8667
▁복구	-10.8668
▁하향	-10.8668
캠	-10.8672
잎	-10.8673
▁아나운서	-10.8673
버드	-10.8674
▁가족들	-10.8676
▁돌입	-10.8676
▁실전	-10.8677
▁설정상	-10.8678
▁휘하	-10.8678
RI	-10.8682
▁상위권	-10.8685
연패	-10.8689
▁매달	-10.869
▁평생	-10.8692
벳	-10.8695
神	-10.8695
▁옹호	-10.8696
▁파츠	-10.8696
▁가지게	-10.8697
▁교황	-10.8698
▁라운드	-10.87
▁상실	-10.8703
▁언더	-10.8706
▁들리	-10.8708
▁제작한	-10.8708
▁유력	-10.8708
▁출생	-10.8709
대왕	-10.871
▁옳	-10.8711
▁비례	-10.8711
▁걸린다	-10.8715
권에	-10.8716
▁건조	-10.8716
▁시리즈에서	-10.872
▁당일	-10.8721
▁처음에	-10.8721
▁라인업	-10.8724
▁사건으로	-10.8728
▁면이	-10.8728
챠	-10.873
out	-10.8737
▁암시	-10.8738
바르	-10.8738
▁사랑하는	-10.8739
▁여겨	-10.8739
▁끈	-10.8739
▁머리카락	-10.874
▁뛰어넘	-10.874
▁준수한	-10.8741
▁공방	-10.8743
▁싹	-10.8743
▁있듯이	-10.8743
▁목을	-10.8746
▁발생한	-10.8749
ps	-10.8749
▁겹치	-10.8752
▁기록하며	-10.8754
▁공지	-10.8754
▁포위	-10.8755
q	-10.8756
▁항공기	-10.8758
▁원수	-10.8758
▁부적	-10.8759
▁학생회	-10.8759
▁시작하는	-10.8759
▁머리에	-10.876
▁맡아	-10.8761
▁부상으로	-10.8761
王	-10.8762
▁자연스럽게	-10.8763
.02	-10.8766
주었다	-10.8767
▁집행	-10.8769
다니는	-10.877
거야	-10.8771
▁경험이	-10.8771
퉁	-10.8773
▁그렇고	-10.8774
통신	-10.8774
해보자	-10.8774
ない	-10.8776
▁경우엔	-10.8776
▁타마	-10.8777
▁보호막	-10.8779
▁멋	-10.8779
▁오스트리아	-10.8784
▁빠르	-10.8791
▁속으로	-10.8793
▁극장	-10.8797
버려서	-10.8798
▁검을	-10.8804
▁보다는	-10.8813
▁지역을	-10.8816
거지	-10.8816
포르	-10.8822
▁확실하게	-10.8823
▁가동	-10.8823
de	-10.8823
▁물건을	-10.8824
▁턱	-10.8824
▁거미	-10.8825
공주	-10.8827
▁오크	-10.8828
링크	-10.8828
▁것보다	-10.8829
학급	-10.8833
ade	-10.8836
オ	-10.884
▁효과로	-10.8841
▁요구하는	-10.8844
▁곳을	-10.8844
「	-10.8844
▁묻자	-10.8847
등의	-10.8849
▁채택	-10.885
렀	-10.8851
▁시너지	-10.8853
▁승객	-10.8855
▁시작으로	-10.8855
▁존재가	-10.8857
▁사태가	-10.8861
▁장애	-10.8863
▁넣을	-10.8863
▁오랜만에	-10.8863
▁알아보	-10.8864
▁홈런을	-10.8866
▁친구가	-10.8867
▁힐러	-10.8867
▁불펜	-10.8872
AP	-10.8875
▁아끼	-10.8876
▁메시지	-10.8877
▁든다	-10.8878
▁버튼을	-10.8879
메이커	-10.888
▁쭉	-10.8883
▁전세계	-10.8884
▁고구려	-10.8886
▁기뻐	-10.8888
펙	-10.8892
ai	-10.8893
▁않는다고	-10.8895
▁개수	-10.8895
툼	-10.8897
봤자	-10.8897
▁플레이어는	-10.8898
▁재산	-10.8899
▁기술로	-10.8899
▁배운	-10.8902
▁오래된	-10.8902
▁되었	-10.8905
iv	-10.8906
ct	-10.8906
▁모습도	-10.8907
▁상식	-10.8908
대교	-10.8909
융	-10.8913
▁출시된	-10.8913
▁갖추	-10.8914
▁로고	-10.8914
테츠	-10.8922
▁KIA	-10.8922
▁싶다면	-10.8923
▁에피소드에서	-10.8926
▁효율이	-10.8927
사령부	-10.8928
그램	-10.8929
▁리뷰	-10.8929
▁용기	-10.8929
▁후손	-10.8929
▁마라	-10.893
▁답이	-10.893
인데다	-10.893
▁일행을	-10.8932
인듯	-10.8933
▁시절부터	-10.894
▁야생	-10.894
▁윌리엄	-10.8942
냅	-10.8942
콧	-10.8942
인데도	-10.8942
▁머물	-10.8944
▁억지로	-10.8944
대학원	-10.8945
▁뜻하는	-10.8947
▁덴	-10.8948
▁구할	-10.8948
피해	-10.8951
방법	-10.8953
▁발생하는	-10.8955
▁大	-10.8956
▁표지	-10.8958
촉	-10.8958
▁유통	-10.896
▁발라	-10.8964
о	-10.8965
하겠다는	-10.8966
깨	-10.8966
▁기운	-10.897
▁하필	-10.897
인지는	-10.8971
▁보완	-10.8975
▁플랫폼	-10.8976
▁삐	-10.8977
▁후기	-10.8978
타수	-10.8982
▁가상	-10.8984
▁상처를	-10.8984
▁총선	-10.8988
▁아저씨	-10.8988
▁아카데미	-10.8988
▁지팡이	-10.8988
▁막내	-10.8988
▁팔아	-10.899
▁엉	-10.8992
위권	-10.8992
▁아니며	-10.8993
▁얘	-10.8995
-19	-10.8996
▁흠	-10.8996
▁운영하는	-10.8996
▁입장을	-10.9001
▁어렸을	-10.9002
▁망치	-10.9003
ight	-10.9003
▁연료	-10.9003
▁바뀌어	-10.9006
▁사정거리	-10.9007
▁일본판	-10.9009
▁거짓	-10.9009
au	-10.901
▁글로벌	-10.901
▁무서운	-10.9011
▁폐쇄	-10.9012
▁관리자	-10.9012
▁실종	-10.9013
▁사귀	-10.9019
▁서포터	-10.9022
▁포수	-10.9024
▁등장하며	-10.9025
사이트	-10.9025
▁기록한	-10.9027
▁기존에	-10.9029
▁야스	-10.9031
▁델	-10.9031
▁250	-10.9031
없다	-10.9032
▁뿌	-10.9032
▁기사가	-10.9033
녕	-10.9033
▁스웨덴	-10.9033
▁침략	-10.9034
기위해	-10.9035
▁매번	-10.9037
플리	-10.9038
▁Ho	-10.9041
▁먹으면	-10.9043
▁연타	-10.9043
▁일제	-10.9044
▁뿜	-10.9046
▁자라	-10.9047
▁라이플	-10.9048
▁일족	-10.9048
▁윗	-10.9054
▁에그	-10.9056
▁이스라엘	-10.9056
▁드라이버	-10.9056
▁쓰러지	-10.9057
▁써야	-10.9058
▁도둑	-10.906
▁PV	-10.906
▁항복	-10.9061
▁한마디로	-10.9061
▁전투에	-10.9061
▁박스	-10.9065
▁퇴장	-10.9065
▁끝날	-10.9067
뽀	-10.9068
▁배터리	-10.9068
▁정화	-10.9074
▁코난	-10.9074
▁인질	-10.9076
▁독특한	-10.9079
▁영국의	-10.9084
▁간격	-10.9084
차원	-10.9085
여행	-10.9085
▁진실을	-10.9086
▁전까지는	-10.9086
▁바뀐다	-10.9087
▁전적	-10.9088
히트	-10.909
▁95	-10.9093
▁실수로	-10.9094
ron	-10.9096
▁주장하는	-10.9097
▁강등	-10.91
돌이	-10.91
먹고	-10.9102
▁후보로	-10.9106
▁자치	-10.9107
겠지	-10.911
▁느끼고	-10.9111
▁유학	-10.9112
▁괴수	-10.9112
▁노려	-10.9112
OW	-10.9113
▁이펙트	-10.9114
▁왠지	-10.9114
▁스위치	-10.9115
▁타겟	-10.9118
▁정발	-10.9119
▁가르쳐	-10.9121
▁사유	-10.9122
셰	-10.9123
▁플래시	-10.9126
▁쓰러진	-10.9126
그마	-10.9126
▁연속으로	-10.9126
▁백작	-10.9128
▁아트	-10.9133
매니아	-10.9135
▁다이아몬드	-10.9137
▁포항	-10.9138
▁터져	-10.9138
▁각본	-10.9138
해온	-10.9139
▁정도이다	-10.9141
▁승률	-10.9143
▁단위	-10.9144
쓸	-10.9147
뚜	-10.9149
▁받아들여	-10.9149
▁생각할	-10.9149
DA	-10.9152
▁오카	-10.9154
▁감정을	-10.9155
▁한두	-10.9159
▁싸웠	-10.9161
전설	-10.9163
▁특히나	-10.9163
▁차트	-10.9165
▁나왔던	-10.9165
▁추정되는	-10.9165
▁태도를	-10.9167
▁이어서	-10.917
▁85	-10.9172
▁집으로	-10.9174
▁대선	-10.9174
▁게임은	-10.9175
▁다음으로	-10.9176
▁피해가	-10.9177
?!	-10.9178
▁메달	-10.9179
▁차기	-10.9184
거라	-10.9185
▁트럭	-10.9186
▁루나	-10.9187
▁비웃	-10.919
▁DJ	-10.919
▁애플	-10.9191
▁휘두르	-10.9195
▁웬만한	-10.9196
▁자가	-10.9201
▁조용	-10.9201
▁마물	-10.9201
포트	-10.9203
▁간단히	-10.9207
▁앨리스	-10.9207
룰	-10.921
▁구성되어	-10.921
▁그래서인지	-10.9211
EX	-10.9212
멀	-10.9214
하고자	-10.9216
▁씹	-10.9216
▁경기는	-10.9216
셨	-10.9216
듀	-10.9217
▁걸리는	-10.9217
▁시키	-10.9218
▁법정	-10.9218
눌	-10.9218
▁플래그	-10.9219
았는데	-10.922
▁보스전	-10.9222
NG	-10.9223
▁반전	-10.9224
▁후에도	-10.9228
▁느낌을	-10.9229
▁기숙사	-10.923
▁무산	-10.923
▁상단	-10.9231
▁캔슬	-10.9234
▁긴장	-10.9235
워크	-10.9238
구치	-10.9243
▁율	-10.9246
▁성공한	-10.9247
▁유이	-10.9247
텀	-10.9247
▁높았	-10.9249
▁칼을	-10.9249
▁바퀴	-10.9251
겠다며	-10.9252
▁연극	-10.9252
▁동인	-10.9253
▁페널티	-10.9253
▁사용된다	-10.9256
랍	-10.9256
▁찾아온	-10.9257
▁못했고	-10.9258
▁쪽에서	-10.9261
▁he	-10.9261
▁테라	-10.9262
▁나오기도	-10.9263
▁상기	-10.9267
트리스	-10.9269
▁물량	-10.9271
픈	-10.9272
▁팽	-10.9276
▁쪽은	-10.9278
▁않았기	-10.9279
▁한방	-10.9282
▁스토리를	-10.9282
▁없으나	-10.9283
▁은신	-10.9283
▁화학	-10.9284
▁공격력을	-10.9285
ies	-10.9288
쑤	-10.9289
▁실질적으로	-10.9289
부인	-10.929
FC	-10.929
램	-10.929
▁요소가	-10.929
-7	-10.9292
소드	-10.9292
▁보이는데	-10.9292
▁낭	-10.9292
▁제외하고는	-10.9292
▁sh	-10.9293
▁싶지	-10.9294
시켜서	-10.9297
▁플로	-10.9297
▁열리	-10.93
▁일으켜	-10.93
▁귀여운	-10.93
▁삽입	-10.93
▁진심으로	-10.9301
▁면역	-10.9303
받았	-10.9304
▁얻었다	-10.9306
이치로	-10.9307
▁있겠지만	-10.9308
▁상태였다	-10.9309
▁삼아	-10.9312
팍	-10.9312
사거리	-10.9314
▁최근에는	-10.9315
월에는	-10.9315
▁타인	-10.9315
▁호흡	-10.9317
▁그러던	-10.9318
코스트	-10.9322
타와	-10.9323
▁쟈	-10.9324
わ	-10.9324
▁Mar	-10.9325
국제	-10.9329
▁맞는다	-10.933
▁여학생	-10.9331
▁올스타	-10.9333
▁유적	-10.9334
▁멋진	-10.9334
▁식민지	-10.9336
▁정식으로	-10.9338
▁승점	-10.9339
▁킨	-10.9339
버리기	-10.9342
▁머신	-10.9343
▁피터	-10.9344
으려고	-10.9345
▁내고	-10.9346
▁작품을	-10.9347
▁향한	-10.9348
▁쳐들어	-10.935
▁진학	-10.935
▁언덕	-10.9354
▁더이상	-10.9354
▁겹쳐	-10.9361
흑	-10.9361
쁘	-10.9363
▁수출	-10.9364
해지고	-10.9367
▁해안	-10.9371
▁컬	-10.9372
▁제약	-10.9374
▁키라	-10.9377
투표	-10.938
▁먹는다	-10.9381
▁슛	-10.9381
▁이벤트가	-10.9381
▁정확	-10.9386
▁Cl	-10.9387
▁그러한	-10.9388
IM	-10.9389
식품	-10.9394
▁결투	-10.9395
▁특성을	-10.9396
▁출연했다	-10.9397
▁SNS	-10.9398
▁코미디	-10.9399
▁차이는	-10.9402
▁장비를	-10.9402
▁Go	-10.9403
▁얘기를	-10.9403
▁시절에는	-10.9403
▁이혼	-10.9406
회전	-10.9409
았으나	-10.9413
받지	-10.9415
업체	-10.9419
▁호수	-10.9421
▁AT	-10.9425
▁숨겨	-10.9425
▁거울	-10.9426
펴	-10.9431
첸	-10.9431
▁노리고	-10.9432
▁존경	-10.9434
네요	-10.9436
스테이지	-10.9439
▁뮤직비디오	-10.9443
▁데다	-10.9443
편에서는	-10.9448
머신	-10.9448
상황	-10.9451
들끼리	-10.9453
▁초등학교	-10.9455
스러워	-10.9457
첨	-10.9459
캐릭터	-10.9459
조선	-10.946
▁동급	-10.946
자동차	-10.946
사이드	-10.946
▁숨어	-10.9461
▁대미지가	-10.9462
▁1987	-10.9463
▁딜링	-10.9463
▁대거	-10.9464
▁가졌다	-10.9465
72	-10.9471
▁Vi	-10.9472
▁우라	-10.9472
▁위반	-10.9475
▁편곡	-10.9476
▁높게	-10.9477
1.1	-10.9477
▁무너지	-10.9481
dy	-10.9486
▁수영	-10.9486
▁곳이다	-10.9486
▁88	-10.9487
▁살아있	-10.9487
▁아미	-10.9487
▁특전	-10.9489
▁OP	-10.9489
상으로는	-10.9489
▁언데드	-10.9491
▁아티스트	-10.9491
▁포함되어	-10.9491
연승	-10.9493
▁반박	-10.9498
▁곡이다	-10.9501
▁닮았다	-10.9502
▁넥센	-10.9503
▁어리	-10.9503
하겠다	-10.9505
▁빨간	-10.9506
떡	-10.9507
▁당연	-10.951
▁스트레스	-10.9511
▁지나지	-10.9514
–	-10.9515
▁특화	-10.9515
▁그랜드	-10.9519
공간	-10.952
▁해킹	-10.9522
▁재개	-10.9523
기능	-10.9526
▁사살	-10.9526
▁타츠	-10.9527
▁임팩트	-10.9527
▁쓰여	-10.9527
▁어두운	-10.9527
▁정차	-10.9529
▁본진	-10.9532
▁첫차	-10.9532
▁처음엔	-10.9534
뱃	-10.9538
▁의미를	-10.954
▁팬텀	-10.954
▁나오면서	-10.9541
▁자랑하는	-10.9543
ever	-10.9544
▁디젤	-10.9544
라니	-10.9544
▁넘어서	-10.9547
cr	-10.9547
▁소장	-10.9548
▁쏜	-10.9549
▁프랑	-10.9549
엔딩	-10.9556
▁바이오	-10.9557
▁EP	-10.9559
▁기동성	-10.956
슬라	-10.9561
▁텍스트	-10.9564
▁이민	-10.9565
▁쪽에	-10.9566
▁66	-10.9567
핵	-10.9568
▁국가들	-10.957
▁시간에	-10.9572
▁없었기	-10.9573
▁모험가	-10.9575
땡	-10.9575
▁방어구	-10.9576
▁나타나는	-10.9576
▁주자	-10.9578
▁아키라	-10.9578
▁작년	-10.9579
▁벌레	-10.9579
▁톱	-10.958
▁천하	-10.958
▁호칭	-10.9581
▁시노	-10.9581
▁불교	-10.9582
▁지불	-10.9582
하루	-10.9584
▁초반부	-10.9585
▁경우에	-10.9587
▁제작사	-10.9587
▁성별	-10.9589
▁않았다고	-10.9591
▁끝난다	-10.9592
▁배포	-10.9592
▁수백	-10.9597
패스	-10.9598
▁칼날	-10.9599
▁두려워	-10.9599
우라	-10.9603
▁72	-10.9603
▁800	-10.9606
▁우리는	-10.9608
▁타격을	-10.961
▁수능	-10.961
▁15%	-10.9611
일지도	-10.9612
▁능력으로	-10.9613
▁지뢰	-10.9614
▁업데이트로	-10.9614
▁알렉	-10.9614
▁신발	-10.9616
갔고	-10.9619
▁속도를	-10.9622
pl	-10.9622
▁드라이브	-10.9623
って	-10.9624
로봇	-10.9628
▁탄창	-10.963
▁무인	-10.963
▁올랐다	-10.9633
▁문학	-10.9634
▁주둔	-10.9635
▁마다	-10.9636
▁사고를	-10.9638
▁침입	-10.964
▁듣기	-10.9647
▁기관총	-10.965
쿼터	-10.9654
▁지칭	-10.9656
▁카더라	-10.9656
▁볼트	-10.966
su	-10.966
▁등장하는데	-10.966
♪	-10.966
진영	-10.966
▁보면서	-10.9664
▁화가	-10.9666
▁초반부터	-10.9666
▁신사	-10.9667
▁추억	-10.9668
▁시대에	-10.9668
▁주어진	-10.967
카르	-10.967
▁결과가	-10.9672
▁CPU	-10.9673
▁편이지만	-10.9674
▁기름	-10.9675
▁무라	-10.9675
▁즐기	-10.9679
천만	-10.968
▁속한다	-10.9681
▁사회적	-10.9682
▁도저히	-10.9684
▁간단한	-10.9685
▁통치	-10.9685
▁25%	-10.9686
▁부임	-10.9686
▁시내	-10.9687
▁조리	-10.9687
▁토니	-10.9688
▁예고	-10.9689
▁정비	-10.9689
▁되려	-10.9695
▁치면	-10.9696
▁여자친구	-10.9697
▁재회	-10.9699
▁넘게	-10.9699
즈카	-10.97
센트	-10.9701
▁히데	-10.9701
▁부르며	-10.9702
▁일치	-10.9703
겸	-10.9706
▁신장	-10.9706
파일	-10.9709
▁주변의	-10.9711
▁파생	-10.9717
▁물고기	-10.9717
▁이주	-10.9719
▁대통령이	-10.9721
▁옮기	-10.9721
▁저작권	-10.9721
▁에드	-10.9723
▁잇는	-10.9726
▁거지	-10.9728
머스	-10.9729
▁민간인	-10.973
▁잠입	-10.9731
놔	-10.9733
▁당대	-10.9734
▁궤도	-10.9735
운수	-10.9735
렀다	-10.9737
▁낸다	-10.9738
▁저택	-10.974
렸는데	-10.974
▁평을	-10.9741
▁플레이어들	-10.9742
▁반해	-10.9743
▁버린	-10.9743
▁목소리를	-10.9745
▁시민들	-10.9745
▁회차	-10.9746
샵	-10.9746
▁닮은	-10.9746
▁말라고	-10.9747
▁경주	-10.975
▁구축함	-10.9751
▁타선	-10.9751
▁골라	-10.9754
▁극중	-10.9757
▁유리한	-10.9757
そ	-10.9758
▁가만히	-10.9759
▁새롭게	-10.976
비용	-10.9761
▁보여줬	-10.9761
축구	-10.9761
▁내린	-10.9763
▁전화를	-10.9765
▁정원	-10.9768
▁백인	-10.9772
▁압도적으로	-10.9773
▁철학	-10.9775
▁올릴	-10.9776
ite	-10.9776
사실	-10.9777
▁영향으로	-10.9782
▁핸드	-10.9783
했음에도	-10.9784
▁피닉스	-10.9787
▁후원	-10.9787
▁놓치	-10.9788
▁Lo	-10.979
하곤	-10.9792
▁조연	-10.9792
▁정통	-10.9794
▁보구	-10.9799
ost	-10.98
▁질투	-10.9802
사격	-10.9802
대단히	-10.9803
▁듣는다	-10.9804
▁지나면	-10.9804
▁층	-10.9805
앨	-10.9806
▁두들겨	-10.9808
▁분기	-10.9808
▁관점	-10.9808
▁묶어	-10.9809
LIVE	-10.9809
▁본부	-10.9811
ob	-10.9812
ction	-10.9812
▁가능성은	-10.9813
▁대치	-10.9813
▁Love	-10.9816
▁근거리	-10.9818
사우루스	-10.982
▁그것은	-10.9821
한국	-10.9822
▁연습생	-10.9823
▁헬기	-10.9827
무늬	-10.9828
개씩	-10.9828
▁나뉘어	-10.9831
▁【	-10.9832
코어	-10.9832
▁두개	-10.9833
▁들어가서	-10.9833
▁무기는	-10.9835
ea	-10.9839
▁저지르	-10.9839
▁애매	-10.9842
▁통산	-10.9843
▁서서히	-10.9845
클럽	-10.9846
▁있겠다	-10.9847
▁로얄	-10.9847
▁떠난	-10.9849
▁유발	-10.9849
▁일어나는	-10.9852
▁작업을	-10.9852
▁입주	-10.9853
コ	-10.9857
▁친한	-10.9858
▁우정	-10.9861
▁배경으로	-10.9862
▁남기고	-10.9862
oc	-10.9862
▁직접적으로	-10.9864
연속	-10.9867
▁정부의	-10.9867
▁98	-10.9868
뚱	-10.987
▁조건이	-10.987
▁뜯어	-10.9871
▁던진	-10.9872
▁기아	-10.9872
▁폭격	-10.9874
▁연사	-10.9875
▁나루토	-10.9878
▁적들	-10.9882
▁줄어든	-10.9882
방울	-10.9883
회복	-10.9885
▁포켓몬스터	-10.9886
▁소재로	-10.9887
께서	-10.9887
레드	-10.9887
뉴스	-10.9888
▁세뇌	-10.9889
▁평가받	-10.9894
▁인지	-10.9895
▁굿	-10.9895
▁조롱	-10.9897
건설	-10.9899
▁즈음	-10.9899
▁국정	-10.9899
▁성향이	-10.9901
▁몰라	-10.9903
▁체험	-10.9909
▁들어올	-10.991
▁히어로즈	-10.9915
▁암살자	-10.9915
티나	-10.9921
▁들어왔	-10.9923
▁맥스	-10.9926
노선	-10.9928
라이즈	-10.993
▁노리는	-10.9932
▁별명이	-10.9934
▁늘려	-10.9935
츠카	-10.9936
▁악화	-10.9938
▁계통	-10.9938
▁입대	-10.9939
만화	-10.9942
▁BL	-10.9942
ah	-10.9944
▁라인전	-10.9947
▁티켓	-10.9948
▁섞어	-10.9953
▁낚	-10.9954
sa	-10.9957
▁언젠가	-10.9957
▁소라	-10.9958
▁미쿠	-10.996
▁만남	-10.996
▁하나이다	-10.9961
▁철거	-10.9962
▁있음	-10.9963
▁56	-10.9964
CH	-10.9964
▁복잡	-10.9964
▁그러면서	-10.9964
▁투명	-10.9968
헐	-10.997
▁부스터	-10.9972
DI	-10.9973
▁감지	-10.9973
▁이용할	-10.9977
모습	-10.9977
~6	-10.998
▁후퇴	-10.9991
민족	-10.9992
▁뮤지컬	-10.9995
▁하루카	-10.9996
▁나왔는데	-11.0002
▁여지가	-11.0002
소설	-11.0007
▁구간이	-11.0008
BO	-11.0009
▁다녔	-11.0011
▁모티브는	-11.0011
▁판결	-11.0012
▁교실	-11.0015
▁버리는	-11.0017
▁뜬금없이	-11.0017
▁사이코	-11.0019
▁못하면	-11.0019
▁아쉽게	-11.002
▁진압	-11.0021
▁고양	-11.0024
▁좋아서	-11.0028
▁칩	-11.0028
▁여전	-11.0028
▁그녀에게	-11.0029
라든가	-11.0032
^	-11.0033
▁침묵	-11.0034
우주	-11.0034
▁아닌데	-11.0035
▁미키	-11.0041
▁말리	-11.0042
▁같다고	-11.0043
▁처지	-11.0043
▁•	-11.0044
겠습니다	-11.0046
웃	-11.0049
▁궁극	-11.0051
▁호환	-11.0052
▁주인공인	-11.0058
▁카드는	-11.0058
▁로빈	-11.0059
▁신부	-11.0059
▁잘라	-11.0061
▁몰랐	-11.0062
▁꽂	-11.0063
▁산하	-11.0064
▁동아리	-11.0065
▁뭉	-11.0069
▁선택할	-11.0072
ort	-11.0074
▁전승	-11.0075
▁위력을	-11.0077
▁블라	-11.0079
럿	-11.008
졌는데	-11.0081
▁권장	-11.0083
▁유지하고	-11.0083
조직	-11.0084
▁전무	-11.0085
▁버그가	-11.0085
▁커서	-11.0085
▁되었지만	-11.0088
▁리버	-11.0092
▁둠	-11.0092
▁놀이	-11.0093
▁영구	-11.0094
▁선제	-11.0095
▁안좋	-11.0097
▁이젠	-11.0099
▁보충	-11.0103
▁뜬	-11.0106
화되어	-11.0106
iss	-11.0108
-16	-11.0108
▁정체는	-11.0109
▁오디션	-11.0109
▁돌아가는	-11.011
▁청와대	-11.0111
TH	-11.0114
▁공백	-11.0115
인방	-11.0121
▁붕	-11.0122
▁체감	-11.0124
▁삶을	-11.0124
▁부실	-11.0129
▁큐브	-11.013
eg	-11.0132
▁아래의	-11.0133
▁타율	-11.0133
▁소스	-11.0134
▁스탠드	-11.0134
金	-11.0135
-08	-11.0137
▁매체	-11.0139
▁하나하나	-11.014
▁여기는	-11.0141
▁쉬워	-11.0142
▁땅을	-11.0144
▁스토리가	-11.0145
ew	-11.0145
IG	-11.0147
▁WWE	-11.0148
▁페이스북	-11.0149
ach	-11.0149
때부터	-11.0149
▁화재	-11.015
▁볼넷	-11.0151
▁서구	-11.0151
곰	-11.0154
▁심해	-11.0155
▁청주	-11.0157
▁출격	-11.0157
IV	-11.0158
▁말로는	-11.0159
▁정신적	-11.016
플러	-11.0161
▁로스	-11.0162
▁용량	-11.0165
▁질문에	-11.0165
▁지키기	-11.0165
▁쌓아	-11.0167
▁1986	-11.0167
▁포기하고	-11.0168
▁복제	-11.0171
▁지키는	-11.0171
▁원딜	-11.0172
▁어빌리티	-11.0173
▁곳곳에	-11.0175
qu	-11.0177
▁드럼	-11.0177
댄	-11.0178
▁과거에는	-11.0178
▁스즈	-11.0182
▁CG	-11.0182
▁긴급	-11.0183
▁부지	-11.0184
▁배달	-11.0184
▁어딘가	-11.0186
▁며칠	-11.0187
하겠지만	-11.0188
▁go	-11.0189
▁상세	-11.0192
레이터	-11.0192
▁달라고	-11.0194
▁단축	-11.0194
▁펫	-11.0198
▁논의	-11.0199
천사	-11.02
▁한방에	-11.02
▁없으므로	-11.0202
▁5%	-11.0202
▁페이스	-11.0203
▁늘리	-11.0205
딱	-11.0206
▁좁은	-11.0208
▁금액	-11.0208
▁인간들	-11.0209
▁실점	-11.021
히코	-11.0212
め	-11.0212
▁가까워	-11.0212
▁시원	-11.0213
모델	-11.0218
pt	-11.022
▁백제	-11.0221
▁따지면	-11.0224
▁치즈	-11.0225
▁뒤늦게	-11.0225
▁전체가	-11.0226
▁바꿀	-11.0227
하였지만	-11.0227
int	-11.0228
▁구성된	-11.0229
▁개설	-11.0229
LA	-11.023
▁끝났다	-11.0233
1.2	-11.0234
▁주류	-11.0234
▁미술	-11.0234
▁호불호	-11.0238
▁감상	-11.0238
▁인터	-11.0239
▁패널	-11.0241
▁목표로	-11.0243
▁중복	-11.0245
▁출구	-11.0247
du	-11.0249
▁대부분은	-11.0249
▁루머	-11.0249
▁기원	-11.0251
▁시합	-11.0253
▁프라	-11.0254
▁동양	-11.0255
▁기점으로	-11.0255
랫	-11.0256
▁긍정	-11.0257
▁인지도	-11.0259
バ	-11.0264
▁미즈	-11.0264
▁탐험	-11.0264
건지	-11.0264
덩	-11.0265
▁레알	-11.0266
▁시작된	-11.0267
▁민첩	-11.0267
▁아메리카	-11.0269
▁스크린	-11.0269
oul	-11.027
서울	-11.0271
▁리가	-11.0272
-03	-11.0272
해볼	-11.0273
▁맡았	-11.0273
▁관람	-11.0273
해버렸다	-11.0274
▁지르	-11.0281
▁파편	-11.0282
카미	-11.0283
쿼	-11.0283
▁채보	-11.0284
▁프로필	-11.0284
▁버려	-11.0284
▁So	-11.0285
업자	-11.0289
▁민간	-11.0294
▁빠르다	-11.0298
녹	-11.0299
▁남겼다	-11.0301
앗	-11.0301
▁속도로	-11.0302
▁RPG	-11.0303
▁된다면	-11.0303
▁위대한	-11.0304
▁분대	-11.0304
아버지	-11.0305
ga	-11.0308
▁내야	-11.0308
▁연합군	-11.0309
▁소식이	-11.0309
▁1984	-11.031
▁En	-11.0311
▁포함된	-11.0311
IL	-11.0313
っ	-11.0314
정치	-11.0315
▁방치	-11.0316
▁진정	-11.0317
쿠스	-11.0318
▁가기	-11.0319
▁스파	-11.0319
▁축하	-11.0323
AA	-11.0324
▁때문이라고	-11.0327
▁복잡한	-11.0328
▁챌린지	-11.0329
구조	-11.0331
▁부정적인	-11.0332
▁뽑기	-11.0335
▁종목	-11.0336
▁54	-11.0339
뜯	-11.0341
▁퍼포먼스	-11.0342
▁내구도	-11.0344
▁관할	-11.0344
▁세라	-11.0347
구간	-11.0348
▁바뀌었	-11.0348
▁경악	-11.0349
▁약하다	-11.0351
ax	-11.0351
▁참여한	-11.0351
▁깔아	-11.0351
▁Di	-11.0354
本	-11.0355
갚	-11.0355
굵	-11.0355
▁이긴	-11.0355
▁만들어낸	-11.0358
▁참가자	-11.036
▁얻는다	-11.036
▁어째	-11.0361
▁일어났	-11.0364
▁발목	-11.0364
▁간주	-11.0364
슬리	-11.0366
▁가자	-11.0367
▁당한다	-11.0367
▁일으켰	-11.0368
ナ	-11.0368
붐	-11.0368
▁재장전	-11.0368
▁얻어맞	-11.037
요시	-11.0376
▁되어버렸다	-11.0379
▁기동전사	-11.0381
▁주니어	-11.0382
▁59	-11.0389
▁갖추고	-11.0391
▁담긴	-11.0391
찮	-11.0393
놀이	-11.0393
▁그렇듯	-11.0394
▁버스터	-11.0399
▁61	-11.0401
▁폭파	-11.0404
▁어필	-11.0404
▁달려있	-11.0406
▁받아서	-11.0408
시키며	-11.041
▁뮤직	-11.0413
▁어울리	-11.0413
흔	-11.0419
▁장거리	-11.042
▁트라우마	-11.042
▁액티브	-11.0421
▁ex	-11.0421
▁주어지	-11.0422
▁지니	-11.0425
해졌	-11.0426
▁76	-11.0429
▁펄	-11.0429
▁2.0	-11.0429
▁범죄자	-11.043
▁호평	-11.0432
▁중대	-11.0435
▁샷건	-11.0438
▁유산	-11.0438
▁도움	-11.0439
▁쏘는	-11.0441
았지만	-11.0443
▁지진	-11.0443
나간다	-11.0445
▁58	-11.045
▁치명적인	-11.0451
▁배정	-11.0452
▁싶으면	-11.0457
▁들어오는	-11.0459
▁해치	-11.0459
▁드래프트	-11.046
▁모습과	-11.0461
사무소	-11.0461
▁성남	-11.0465
▁우르	-11.0472
▁레인저	-11.0472
▁탄환	-11.0476
▁폐기	-11.0477
▁마루	-11.0477
▁아시	-11.0478
▁만들어서	-11.0481
▁죽게	-11.0482
ug	-11.0486
굽	-11.0486
▁서번트	-11.0487
▁자전거	-11.0487
▁53	-11.049
▁전설의	-11.049
ec	-11.049
▁루비	-11.0491
▁흰색	-11.0491
▁나갈	-11.0491
백화점	-11.0492
▁왕위	-11.0496
▁막아내	-11.0501
▁원문	-11.0502
▁57	-11.0502
▁로버트	-11.0504
마르	-11.0504
▁카와	-11.0506
▁마그	-11.0507
▁형식으로	-11.0507
▁패턴을	-11.0508
▁도움으로	-11.051
ts	-11.051
▁수호자	-11.0511
▁삼국	-11.0512
サ	-11.0513
▁다운로드	-11.0514
▁못해서	-11.0515
▁똑같다	-11.0516
▁코리아	-11.0516
전자	-11.0519
▁되어있다	-11.052
▁스포일러	-11.0521
▁날짜	-11.0521
▁제트	-11.0523
덩이	-11.0524
스틴	-11.0525
▁깜짝	-11.0526
▁변환	-11.0527
▁헨리	-11.0527
▁직장	-11.0528
▁궁금	-11.0528
▁KBO	-11.0529
▁김경	-11.0529
스포츠	-11.053
▁나머지는	-11.0531
▁개혁	-11.0531
▁특수한	-11.0532
▁에르	-11.0532
범죄	-11.0533
▁통칭	-11.0535
▁아버지를	-11.0536
▁호소	-11.0538
했을때	-11.0538
권에서는	-11.0538
▁메르	-11.0539
ミ	-11.0539
▁삼각	-11.0544
▁킬러	-11.0544
▁악몽	-11.0545
마냥	-11.0546
sys	-11.0547
올린	-11.0549
▁명백	-11.055
▁데이트	-11.0551
국민	-11.0552
▁먹었다	-11.0555
▁나간	-11.0558
▁제한이	-11.0558
▁양성	-11.0559
키아	-11.056
▁마우스	-11.0561
형제	-11.0561
▁아랍	-11.0562
▁아래로	-11.0562
▁댄	-11.0565
▁지위	-11.0567
▁사실이다	-11.0571
▁모습에	-11.0571
cc	-11.0572
▁마냥	-11.0572
▁남아있는	-11.0572
-07	-11.0574
▁요금	-11.0574
/10	-11.0574
▁필요없	-11.0574
▁CF	-11.0575
▁학교에	-11.0576
쿄	-11.0576
▁페이즈	-11.058
십시오	-11.0581
▁결정적인	-11.0582
▁배려	-11.0586
▁즉위	-11.0587
즌	-11.0588
▁거친	-11.0589
▁오로지	-11.059
ok	-11.0592
▁경직	-11.0595
▁특별히	-11.0596
▁자신들이	-11.0598
▁좋다고	-11.0598
▁줄여	-11.0599
▁본사	-11.0599
▁中	-11.0602
ish	-11.0603
～	-11.0606
▁닉네임	-11.0606
▁제갈량	-11.0606
▁중세	-11.0607
▁국경	-11.0608
ence	-11.0608
되므로	-11.061
▁조우	-11.0612
퓨	-11.0615
▁콜라보	-11.062
▁제출	-11.0622
▁드롭	-11.0624
▁모티브로	-11.0629
▁휠	-11.0629
텍스	-11.063
긋	-11.0633
е	-11.0633
▁트위치	-11.0633
▁인공	-11.0637
▁야마토	-11.0639
장군	-11.0643
▁달라지	-11.0645
▁소방	-11.0648
▁실책	-11.0648
▁올라왔다	-11.065
▁넘어가는	-11.0652
ven	-11.0653
▁블레	-11.0653
▁서포트	-11.0653
▁엔젤	-11.0654
▁결합	-11.0656
▁원조	-11.0657
▁일화	-11.0657
▁보냈다	-11.0659
▁마감	-11.0659
▁세상에	-11.0659
있었다	-11.0659
▁닌텐도	-11.066
▁수치가	-11.0661
▁톤	-11.0663
정책	-11.0667
▁리드	-11.0668
▁왜곡	-11.0668
▁감동	-11.0668
▁만일	-11.0669
▁Ver	-11.067
EM	-11.0673
▁배출	-11.0673
▁세월	-11.0673
뮬	-11.0674
ET	-11.0675
▁땅에	-11.0675
▁합병	-11.0675
▁베타	-11.0676
▁놈들	-11.0679
▁캐스터	-11.0679
▁짐작	-11.0681
ess	-11.0681
▁무역	-11.0681
▁분쟁	-11.0682
▁싸움이	-11.0682
▁내전	-11.0682
▁다녀	-11.0683
▁성적이	-11.0686
▁무술	-11.0687
▁프리미엄	-11.0687
▁중후반	-11.0687
▁극도	-11.0692
▁밖	-11.0696
▁부자	-11.0697
▁철권	-11.0698
코스	-11.07
▁동점	-11.0702
▁군대를	-11.0706
계획	-11.0706
▁블로	-11.0706
▁있거나	-11.0706
시키지	-11.0706
▁싶다고	-11.0708
▁디바	-11.0709
▁가방	-11.0714
GA	-11.0715
▁파동	-11.0719
▁정상적인	-11.0721
▁크기가	-11.0723
▁행운	-11.0724
▁개발자	-11.0729
▁가지는	-11.0734
▁나이에	-11.0735
rea	-11.0736
▁과장	-11.0737
▁스펠	-11.0739
:20	-11.0743
세력	-11.0743
▁둘러	-11.0744
si	-11.0744
▁역시나	-11.0745
▁가죽	-11.0746
▁가디언	-11.0748
▁에디	-11.0749
▁보이기도	-11.0749
▁약화	-11.0752
▁통계	-11.0753
▁통틀어	-11.0755
달라	-11.0757
▁보내는	-11.0758
다던가	-11.076
▁끝으로	-11.0762
▁날리는	-11.0765
▁괜찮다	-11.0766
▁일당	-11.0766
수있다	-11.0766
sk	-11.077
▁구슬	-11.0772
▁용인	-11.0774
▁생길	-11.0775
▁관계자	-11.0776
▁3000	-11.0779
□	-11.0782
▁차지했다	-11.0786
▁결전	-11.0787
▁클릭	-11.0787
▁것이기	-11.0789
▁유언	-11.0793
시민	-11.0794
三	-11.0796
슈타인	-11.0797
▁선두	-11.0799
▁되므로	-11.0799
냐면	-11.0799
였기에	-11.0801
▁발매되었다	-11.0801
▁부장	-11.0804
▁중국어	-11.0804
▁카드로	-11.0806
▁복무	-11.0806
▁자본	-11.0808
▁호평을	-11.0809
▁가리지	-11.081
▁코멘트	-11.081
▁공원	-11.0811
▁수색	-11.0812
▁발굴	-11.0814
▁97	-11.0816
▁프렌	-11.0817
▁오염	-11.0817
겟	-11.0819
fe	-11.0819
경기에서	-11.082
▁열리는	-11.0821
▁재등장	-11.0823
▁보라색	-11.0823
네이션	-11.0824
▁확장팩	-11.0824
BA	-11.0826
▁방어력이	-11.0826
있으며	-11.0828
기준	-11.0829
▁무공	-11.0831
▁야간	-11.0831
▁주의해야	-11.0836
붓	-11.0836
MS	-11.0838
▁강원도	-11.0839
▁마신	-11.0839
▁사용하며	-11.084
▁측정	-11.084
▁손상	-11.084
▁여우	-11.0841
▁조커	-11.0844
▁화산	-11.0845
▁레인	-11.0846
관련	-11.0846
▁카츠	-11.0847
▁위력이	-11.0849
ウ	-11.0851
볶	-11.0851
▁오스만	-11.0853
▁공격속도	-11.0854
▁중첩	-11.0856
▁들어갔	-11.0863
▁마블	-11.0863
▁배차간격	-11.0865
▁재단	-11.0866
▁봤을	-11.0866
민주	-11.0867
▁멸	-11.0871
▁그날	-11.0872
▁1960	-11.0873
튀	-11.0874
올라	-11.0877
▁팀원	-11.0877
▁포르투갈	-11.0878
▁진주	-11.088
▁챙기	-11.088
▁자녀	-11.0882
ink	-11.0884
▁투척	-11.0886
▁조금만	-11.0889
▁돌아왔다	-11.0891
▁네트워크	-11.0892
-17	-11.0893
▁호랑이	-11.0894
▁아츠	-11.0896
▁JR	-11.0896
▁US	-11.0896
▁올라가는	-11.0902
▁경우에도	-11.0902
▁기세	-11.0903
▁창원	-11.0904
ous	-11.0906
▁태어났다	-11.0907
▁이득을	-11.0909
▁쯤	-11.0909
부장	-11.0911
▁지목	-11.0915
po	-11.0915
▁붙인	-11.092
▁재사용	-11.092
▁마코토	-11.092
▁AS	-11.092
▁경남	-11.0922
▁악명	-11.0924
▁없어지	-11.0924
▁나누어	-11.0924
보스	-11.0924
입구	-11.0927
▁DVD	-11.0934
▁크림	-11.0939
▁찾아보	-11.0939
▁Pa	-11.094
▁포함해	-11.0941
▁좌석	-11.0941
▁국도	-11.0943
▁LA	-11.0943
▁권위	-11.0943
덩어리	-11.0948
▁네임드	-11.0948
▁왕국의	-11.0951
▁당할	-11.0952
전문	-11.0954
▁LV	-11.0956
▁옆에서	-11.0956
▁당신이	-11.0959
골드	-11.096
학기	-11.0962
▁무작위	-11.0962
▁떠오르	-11.0963
했듯이	-11.0966
▁내려오	-11.0967
▁지워	-11.0969
으러	-11.097
▁영광	-11.097
▁막고	-11.0971
▁객	-11.0972
▁77	-11.0973
▁영어로	-11.0973
▁난이도는	-11.0975
▁치킨	-11.0975
▁여기저기	-11.0975
▁기회가	-11.0976
▁데려가	-11.0976
▁코믹	-11.0985
▁우세	-11.0986
▁용도	-11.0988
봐도	-11.099
▁거론	-11.0992
▁유래는	-11.0993
▁이상하게	-11.0997
▁자체도	-11.0999
떨	-11.0999
▁드론	-11.1
▁소문이	-11.1001
▁영원히	-11.1003
▁감각	-11.1003
▁이렇다	-11.1006
▁샷	-11.1006
▁부족하다	-11.1006
▁비유	-11.1008
▁선수로	-11.1008
▁특징이다	-11.1011
▁너무나	-11.1015
멈	-11.1017
▁토너먼트	-11.1017
▁공산당	-11.1017
▁등장할	-11.1018
-8	-11.102
~4	-11.1021
▁인구가	-11.1021
▁화제가	-11.1026
파티	-11.1032
▁도착한	-11.1034
hy	-11.1034
졌을	-11.1034
▁연사력	-11.1035
강화	-11.1035
OU	-11.1037
▁못하다	-11.1038
▁5000	-11.1039
▁짱	-11.1039
▁상담	-11.1039
▁많으며	-11.104
wn	-11.1043
▁간간히	-11.1045
▁썬더	-11.1045
▁96	-11.1046
▁상황이었다	-11.1052
▁그러면	-11.1056
셈	-11.1057
▁니코	-11.1059
▁야수	-11.106
▁게이머	-11.1061
▁함부로	-11.1061
시청	-11.1061
▁이웃	-11.1062
▁대성	-11.1063
루루	-11.1063
▁소음	-11.1064
▁멀어	-11.1066
▁주간	-11.1067
▁1985	-11.1067
버트	-11.107
아라	-11.1071
밋	-11.1073
솟	-11.1073
▁개신교	-11.1073
▁재미있	-11.1073
피안타	-11.1073
▁적극	-11.1076
▁기상	-11.1076
▁정부가	-11.1078
액션	-11.1078
▁전망	-11.1081
▁프레이	-11.1082
헤이	-11.1082
틈	-11.1083
0.0	-11.1083
첼	-11.1085
느라	-11.1085
▁선거에서	-11.1086
▁스트리머	-11.1087
▁한국판	-11.1088
▁선출	-11.1089
▁올라간다	-11.1089
▁인터뷰를	-11.1092
하자마자	-11.1093
▁조용히	-11.1094
▁반응은	-11.1095
▁출신으로	-11.1099
▁터진	-11.1101
▁이유도	-11.1101
▁유망주	-11.1101
조각	-11.1105
aw	-11.1108
▁찾아오	-11.111
▁포트	-11.1112
▁↓	-11.1116
▁축복	-11.1117
었으니	-11.1118
▁※	-11.1119
▁계기가	-11.112
way	-11.1121
▁선보이	-11.1122
으니까	-11.1123
▁고증	-11.1125
▁막상	-11.1125
▁싶을	-11.1126
▁입장에선	-11.1127
▁어디서	-11.1128
▁복선	-11.1129
▁챔피언십	-11.1132
▁86	-11.1132
▁심심	-11.1134
▁천안	-11.1135
▁루크	-11.1137
▁너무나도	-11.1138
▁%	-11.1138
탭	-11.1139
아시아	-11.114
▁위안	-11.1141
UM	-11.1143
륨	-11.1144
셸	-11.1144
뤼	-11.1144
▁카카오	-11.1144
▁전락	-11.1145
▁사단	-11.1146
▁단종	-11.1147
▁이후부터	-11.1148
▁독재	-11.1149
▁사라지고	-11.1149
:10	-11.1153
tion	-11.1153
ran	-11.1154
NO	-11.1155
▁반감	-11.1156
▁넘버	-11.1157
슐	-11.1158
▁흡사	-11.1158
▁마스크	-11.1162
▁싸움에서	-11.1163
중국	-11.1163
▁혼돈	-11.1164
▁어뢰	-11.1168
▁FIFA	-11.1172
チ	-11.1172
pp	-11.1172
▁찢어	-11.1172
▁국가대표팀	-11.1175
▁잡으면	-11.1176
+2	-11.1179
▁독점	-11.1181
놓는다	-11.1183
▁복수를	-11.1185
스럽다	-11.1186
조합	-11.1186
и	-11.1186
low	-11.1187
사령관	-11.1188
뜨리	-11.1189
▁몫	-11.1189
▁UN	-11.119
▁완전한	-11.1192
▁전파	-11.1192
▁쓸만한	-11.1193
▁트리플	-11.1193
▁벤치	-11.1194
▁●	-11.1194
▁책임을	-11.1197
CD	-11.1201
쟈	-11.1201
▁본토	-11.1205
▁끓	-11.1209
▁코르	-11.121
~10	-11.1216
▁로그	-11.1217
함대	-11.1217
▁일어났다	-11.1219
▁자아	-11.1219
▁원더	-11.1219
▁불어	-11.122
▁노동자	-11.1223
0.1	-11.1225
->	-11.1228
▁멜로디	-11.1229
▁시달리	-11.123
▁정예	-11.1237
han	-11.1243
▁길게	-11.1243
▁금메달	-11.1243
▁일방적으로	-11.1243
▁사망한다	-11.1244
▁뽑는	-11.1247
데미지	-11.1247
▁금융	-11.1247
모어	-11.1247
▁원작과	-11.1247
▁TVA	-11.1249
블러	-11.1249
▁my	-11.125
▁브라운	-11.125
sp	-11.1254
▁들을	-11.1256
▁이익	-11.1257
女	-11.1258
▁김상	-11.1258
▁몰리	-11.1262
노스케	-11.1262
▁독일군	-11.1263
▁곱	-11.1264
요소	-11.1265
2.1	-11.1265
▁헌법	-11.1266
▁느꼈	-11.1272
▁진행하는	-11.1274
▁세계대전	-11.1276
▁미래를	-11.1285
풋	-11.1286
▁추종자	-11.1287
▁핑크	-11.1287
렸을	-11.1287
▁우주선	-11.1287
▁자유롭게	-11.1287
▁성질	-11.1289
▁위성	-11.1289
라운드에서	-11.1291
▁사망했다	-11.1292
▁무시무시한	-11.1301
▁하이퍼	-11.1302
▁마계	-11.1304
▁파란색	-11.1304
▁여럿	-11.1304
겠어	-11.1305
▁때문이었다	-11.1305
▁극한	-11.1307
▁남매	-11.1311
▁OG	-11.1315
▁분열	-11.1316
▁떨어졌다	-11.1316
az	-11.1317
do	-11.1318
▁시작했고	-11.1319
▁웨이브	-11.132
하냐	-11.1321
▁세팅	-11.1328
얹	-11.1329
▁커지	-11.1331
▁대하여	-11.1331
▁죽으면	-11.1332
▁관여	-11.1332
▁폭행	-11.1332
▁불량	-11.1333
▁웃는	-11.1338
use	-11.1339
▁근원	-11.1339
▁관측	-11.1339
오버	-11.134
영웅	-11.1343
mi	-11.1343
上	-11.1344
▁있겠	-11.1348
느니	-11.135
▁승자	-11.1351
▁권유	-11.1351
▁보존	-11.1352
HA	-11.1354
▁101	-11.1357
じ	-11.1358
▁깎아	-11.136
▁그만두	-11.1361
▁유닛들	-11.1363
▁쏠	-11.1366
▁안심	-11.1367
▁싱크로	-11.1373
▁검은색	-11.1374
▁0.5	-11.1379
▁회색	-11.1379
닉스	-11.1381
▁수록된	-11.1381
▁단장	-11.1384
▁소프트웨어	-11.1387
▁적혀있	-11.1388
▁통화	-11.1389
▁대포	-11.1391
뿌	-11.1392
▁당사자	-11.1392
▁설령	-11.1394
▁만들어내	-11.1399
▁이루어	-11.14
▁실질적인	-11.1402
▁손오공	-11.1402
木	-11.1402
▁쉴드	-11.1402
구청	-11.1405
▁불행	-11.1405
中	-11.1406
▁적들을	-11.1408
▁Dr	-11.1412
mon	-11.1413
▁교단	-11.1414
▁디즈니	-11.1416
그리고	-11.1418
▁CP	-11.1419
▁사원	-11.1419
▁지녔	-11.142
할만한	-11.1422
▁화력을	-11.1424
▁가루	-11.1426
▁기재	-11.1429
ory	-11.1431
정당	-11.1432
we	-11.1434
▁학교에서	-11.1436
▁변화가	-11.144
있는데	-11.144
▁개별	-11.1441
써	-11.1442
▁받으면	-11.1443
▁바꾸는	-11.1444
▁과학자	-11.1445
▁부작용	-11.1446
▁선행	-11.1448
▁생명체	-11.1448
▁아름	-11.1452
▁받았고	-11.1452
신도시	-11.1454
▁올드	-11.1455
▁Sc	-11.1456
▁자꾸	-11.1458
▁이런저런	-11.146
▁애니판	-11.1465
▁박정	-11.1465
왜	-11.1466
▁증폭	-11.1466
▁맡게	-11.1468
산역	-11.1468
비행	-11.1475
bl	-11.1479
낭	-11.1481
스포일러	-11.1481
▁엄격	-11.1483
▁살아남은	-11.1484
▁진격	-11.1488
▁과제	-11.149
▁최종적으로	-11.149
▁보유한	-11.1491
▁아버지와	-11.1491
▁소요	-11.1496
▁아스카	-11.1498
▁밤에	-11.1498
▁믿는	-11.1503
▁파멸	-11.1504
▁서울시	-11.1506
-05	-11.1508
SI	-11.1508
캡	-11.151
▁국방	-11.1514
쿵	-11.1519
▁알레	-11.1519
▁요인	-11.152
▁오메가	-11.152
▁62	-11.1524
버튼	-11.1524
▁놓은	-11.1525
▁흔한	-11.1528
▁구미	-11.1532
펑	-11.1533
▁리타이어	-11.1533
▁훔쳐	-11.1533
▁비극	-11.1534
▁사용시	-11.1534
▁동경	-11.1535
▁증상	-11.1537
▁결정적으로	-11.1538
▁효율적	-11.154
▁꼬마	-11.1541
▁축소	-11.1542
▁인민	-11.1543
min	-11.1544
▁이걸로	-11.1547
や	-11.1548
▁자이언츠	-11.1548
▁도미	-11.1549
▁안정적인	-11.1551
▁골렘	-11.1551
티브	-11.1551
▁넘치는	-11.1554
ile	-11.1557
▁느끼는	-11.1557
▁창단	-11.1558
다보면	-11.1558
ster	-11.1559
-06	-11.156
▁탐정	-11.1561
▁건국	-11.1562
▁바론	-11.1562
▁박살내	-11.1564
흘	-11.1566
▁1500	-11.157
▁찍고	-11.157
▁웨스트	-11.157
▁고객	-11.1572
내려	-11.1575
▁구름	-11.1579
▁추세	-11.1579
코치	-11.1582
▁않았으나	-11.1582
ens	-11.1585
▁에픽	-11.1592
▁즐겨	-11.1592
▁세인트	-11.1594
▁항구	-11.1596
▁알려지	-11.1596
▁보드	-11.1597
▁CC	-11.1598
▁평양	-11.1602
▁고소	-11.1604
차전에서	-11.1605
▁라스	-11.1606
▁에릭	-11.1607
▁균형	-11.1609
▁질병	-11.161
장관	-11.1613
맥스	-11.1614
▁되도록	-11.1615
▁세금	-11.1616
▁화력이	-11.1616
▁차이를	-11.1619
▁결혼식	-11.162
▁상대할	-11.1621
▁연령	-11.1621
▁아가씨	-11.1623
볼트	-11.1624
▁경북	-11.1624
▁울트라맨	-11.1625
▁노린	-11.1627
va	-11.1627
▁감탄	-11.1628
렸지만	-11.1628
▁각오	-11.163
▁데이터를	-11.1634
-02	-11.1638
▁콘솔	-11.1638
▁택시	-11.1639
▁분해	-11.1642
▁유혹	-11.1643
▁공용	-11.1644
▁섞여	-11.1645
▁뜬다	-11.1646
군단	-11.1646
▁의회	-11.1646
▁동일하게	-11.165
▁일본에서는	-11.1651
▁규모가	-11.1652
쯔	-11.1652
▁초중반	-11.1652
▁조종사	-11.1653
gr	-11.1653
▁가져오	-11.1653
▁배제	-11.1656
▁관우	-11.1657
▁잃었	-11.1657
들처럼	-11.1659
▁센스	-11.1659
예술	-11.1661
▁나오게	-11.1661
▁세븐	-11.1663
되서	-11.1663
▁시신	-11.1664
▁교복	-11.1665
▁프린세스	-11.1667
▁AKB	-11.1667
▁클론	-11.1667
▁아동	-11.1667
이었을	-11.1667
▁막대한	-11.1667
▁배드	-11.1669
▁가능성을	-11.1672
▁형태를	-11.1674
▁요코	-11.1679
▁겪었	-11.1682
▁콘텐츠	-11.1682
ev	-11.1682
▁110	-11.1682
▁나오지만	-11.1686
▁되어버린	-11.1686
▁약탈	-11.1688
▁가능하지만	-11.1689
▁130	-11.1691
▁케이블	-11.1692
▁노부	-11.1695
▁스폰	-11.1696
▁쌀	-11.1696
▁첼시	-11.1697
ial	-11.1697
▁무서워	-11.1698
▁잠실	-11.1699
ik	-11.17
▁아시안	-11.1702
▁히든	-11.1702
▁소송	-11.1705
▁시작할	-11.1706
▁작품들	-11.1707
▁막히	-11.1708
ase	-11.171
-18	-11.1711
▁that	-11.1712
▁DF	-11.1715
▁극히	-11.1716
NE	-11.1717
▁do	-11.1718
▁뚫고	-11.1719
▁어쩌면	-11.172
▁제독	-11.1724
▁적용된다	-11.1725
▁드러난다	-11.1726
▁김진	-11.1726
▁비주얼	-11.1727
▁장사	-11.1728
▁비롯해	-11.1728
▁발행	-11.1728
▁초능력	-11.173
▁규격	-11.1731
브레	-11.1731
▁깨지	-11.1735
▁케인	-11.1735
무스	-11.1735
뻔	-11.1737
▁좌절	-11.1737
▁상호	-11.1738
▁your	-11.1738
유저	-11.1739
▁잡아내	-11.1739
メ	-11.1741
SU	-11.1742
▁끔살	-11.1742
▁패밀리	-11.1742
:50	-11.1743
▁잉여	-11.1749
▁불렀	-11.175
▁올리고	-11.1751
▁↔	-11.1751
▁Li	-11.1751
▁선임	-11.1752
▁어이없	-11.1752
▁날씨	-11.1753
▁하프	-11.1755
▁섀도우	-11.1757
▁퍼져	-11.1758
▁정해진	-11.1759
▁Or	-11.1761
▁감수	-11.1761
▁해병대	-11.1761
▁담당하는	-11.1761
▁꽉	-11.1762
▁아니더라도	-11.1763
▁트루	-11.1768
▁적중	-11.1768
▁슈퍼로봇대전	-11.1772
▁깨닫고	-11.1772
▁되돌아	-11.1772
▁없어진	-11.1773
▁무실점	-11.1773
왕국	-11.1773
▁체육관	-11.1774
▁싸운다	-11.1775
▁감싸	-11.1775
르드	-11.1776
▁서머	-11.1777
▁파르	-11.1778
▁영지	-11.1781
후보	-11.1782
▁보이스	-11.1784
▁가공	-11.1793
장애	-11.1794
▁감정이	-11.1796
폼	-11.1799
▁몰살	-11.1801
AB	-11.1802
▁취득	-11.1808
▁인용	-11.1809
▁빠르고	-11.1815
웜	-11.1817
▁윈도우	-11.1817
▁거둔	-11.1819
▁돌아간다	-11.182
▁부르고	-11.1822
요리	-11.1826
▁병과	-11.1826
ING	-11.1827
▁사거리가	-11.1827
신문	-11.1827
▁리오	-11.183
ldm	-11.1831
▁좋지만	-11.1831
벡	-11.1832
젼	-11.1832
▁학부	-11.1832
▁잠재	-11.1833
▁측면에서	-11.1838
▁1982	-11.184
해져서	-11.1841
▁비추	-11.1841
▁마비	-11.1842
▁Da	-11.1843
▁주의할	-11.1843
▁대접	-11.1844
▁국가대표	-11.1844
ary	-11.1845
▁유전자	-11.1846
gu	-11.1846
▁아르헨티나	-11.1847
▁스트리트	-11.1847
ib	-11.1848
드래곤	-11.1848
▁편이고	-11.1851
▁LP	-11.1852
ris	-11.1853
▁관찰	-11.1855
▁즐기는	-11.1856
▁예수	-11.1859
▁진상	-11.186
▁흔들리	-11.1861
짤	-11.1861
▁검술	-11.1862
プ	-11.1862
▁OVA	-11.1862
▁프록시	-11.1862
▁패키지	-11.1863
▁신선	-11.1863
▁울프	-11.1865
▁발견하고	-11.1867
▁모집	-11.1869
▁불안정	-11.1869
▁아케	-11.1871
▁직선	-11.1871
▁40%	-11.1873
▁유니크	-11.1873
ook	-11.1875
ム	-11.1878
▁한반도	-11.188
▁드릴	-11.188
하더니	-11.1881
▁품고	-11.1882
▁공수	-11.1884
▁추리	-11.1886
인칭	-11.1892
▁전북	-11.1893
グ	-11.1893
캄	-11.1893
▁튼튼	-11.1893
▁가져다	-11.1899
▁유료	-11.1899
▁레어도	-11.1903
▁해보	-11.1903
▁모르게	-11.1904
-9	-11.1906
▁고블린	-11.1908
▁고장	-11.1911
▁쓰게	-11.1912
▁사용된	-11.1914
▁비전	-11.1914
▁명문	-11.1915
▁루피	-11.1917
해주면	-11.1917
▁밝은	-11.1918
ou	-11.192
▁어마어마한	-11.1921
▁by	-11.1922
▁누군가가	-11.1922
웬	-11.1922
▁다름	-11.1922
궐	-11.1923
▁코스튬	-11.1924
▁구별	-11.1925
▁낙하	-11.1927
▁신전	-11.1928
▁열매	-11.1928
▁Fate	-11.1931
CA	-11.1938
빗	-11.1939
▁단행본	-11.1939
▁키보드	-11.1939
▁장미	-11.1939
져있	-11.1944
▁SF	-11.1944
__:	-11.1944
▁화려	-11.1944
화에선	-11.1951
▁이곳에	-11.1951
▁인게임	-11.1952
▁해머	-11.1952
▁전날	-11.1953
▁El	-11.1953
퀵	-11.1954
▁여포	-11.196
▁높아지	-11.1962
▁우유	-11.1963
트레	-11.1963
틀리	-11.1966
멍	-11.1969
▁새누리당	-11.1969
떠	-11.197
▁버섯	-11.1971
▁도시철도	-11.1972
▁진급	-11.1974
동물	-11.1975
웨어	-11.1977
▁엘레	-11.1978
▁첫째	-11.1979
▁거기다가	-11.198
▁골키퍼	-11.1985
▁사람으로	-11.1985
▁않으니	-11.1985
▁가져온	-11.1986
▁스위스	-11.1986
ans	-11.1986
▁표절	-11.1987
으라고	-11.1988
▁높지	-11.1989
▁보았	-11.1989
▁장난감	-11.1989
▁본격적인	-11.199
▁It	-11.1991
RS	-11.1993
▁시리아	-11.1994
Lv	-11.1998
▁후임	-11.2
▁편인데	-11.2001
마크	-11.2006
하세요	-11.2007
▁we	-11.2009
▁1983	-11.2009
▁아베	-11.2011
▁차지하고	-11.2012
▁모노	-11.2014
▁논쟁	-11.2015
▁차체	-11.2015
▁주관	-11.2015
é	-11.2016
▁승무원	-11.2016
▁올라와	-11.2017
▁발견된	-11.2019
히메	-11.2021
▁합동	-11.2022
▁기둥	-11.2022
▁놀란	-11.2023
▁끼고	-11.2024
▁위엄	-11.2028
▁일행은	-11.2028
페이지	-11.2028
▁Star	-11.203
н	-11.2031
▁가벼운	-11.2031
▁커스텀	-11.2031
▁흑역사	-11.2031
▁모니터	-11.2031
▁가질	-11.2036
▁업계	-11.2038
▁찬성	-11.2038
▁추방	-11.2042
▁그려진	-11.2042
▁부근	-11.2044
▁한창	-11.2045
▁양상	-11.2045
▁편하다	-11.2046
들리	-11.2046
▁트레일러	-11.2047
▁고집	-11.2047
▁흡혈귀	-11.2048
선수권	-11.2048
▁실시간	-11.2048
▁DC	-11.2049
▁훌륭	-11.205
▁둘다	-11.2053
▁건네	-11.2053
▁있었기에	-11.2054
lu	-11.2055
했으면	-11.2058
▁뜻한다	-11.2059
▁창설	-11.2059
▁마피아	-11.2062
─	-11.2062
▁편이며	-11.2063
▁비틀	-11.2064
▁굴욕	-11.2065
▁전제	-11.2066
▁인지도가	-11.2068
▁시작하면	-11.2069
▁복원	-11.2069
▁여타	-11.2071
▁유출	-11.2074
▁기부	-11.2075
▁상태이다	-11.2077
▁물러나	-11.2081
▁곡명	-11.2085
▁노바	-11.2085
IR	-11.2088
▁히메	-11.2089
▁실사	-11.2089
▁원곡	-11.209
▁조상	-11.209
▁상영	-11.2092
▁뛰어나다	-11.2093
솜	-11.2093
땐	-11.2097
▁못했던	-11.2098
▁기분이	-11.2103
▁약물	-11.2103
▁타이탄	-11.2105
▁원피스	-11.2106
▁덧붙여	-11.211
ki	-11.2112
▁동행	-11.2116
▁듣게	-11.2119
▁파란	-11.2121
▁예약	-11.2121
▁개막	-11.2122
톰	-11.2124
▁따뜻	-11.2125
▁이어진다	-11.2127
-14	-11.2133
리엘	-11.2133
쉴	-11.2139
▁징계	-11.214
▁저하	-11.214
▁괴롭히	-11.214
앰	-11.214
▁장탄수	-11.2141
루트	-11.2144
▁인상적	-11.2144
▁출시되었다	-11.2145
▁신속	-11.2148
▁굴러	-11.2149
:40	-11.215
▁묘하게	-11.2153
▁워커	-11.2154
▁익스	-11.2155
팁	-11.2156
퍽	-11.2156
▁왜냐하면	-11.2156
▁끝나면	-11.2156
확률	-11.2156
▁히라	-11.2156
▁벌어지는	-11.2157
보내	-11.2158
▁코토	-11.2159
▁포장	-11.216
)	-11.216
▁63	-11.2161
ound	-11.2163
▁던지는	-11.2164
생물	-11.2165
▁격차	-11.2165
자료	-11.2165
▁압권	-11.2167
▁나간다	-11.2167
제품	-11.2167
▁노벨	-11.2168
▁일행과	-11.2171
▁어지간한	-11.2171
▁엄밀히	-11.2171
▁무승부	-11.2172
▁트리거	-11.2172
▁어려	-11.2172
▁알렉스	-11.2173
▁1950	-11.2178
▁명분	-11.2184
퍼스	-11.2184
▁강간	-11.2186
콕	-11.2187
▁일어날	-11.2187
서버	-11.2188
▁혜택	-11.2189
▁기갑	-11.2191
▁맞춘	-11.2193
▁별도로	-11.2194
▁간지	-11.2195
▁대령	-11.2204
군요	-11.2205
▁근접전	-11.2206
파이트	-11.2206
▁마족	-11.2212
▁스타리그	-11.2212
▁레벨업	-11.2213
▁나빠	-11.2214
lan	-11.2215
▁MF	-11.2216
エ	-11.2219
▁남아있다	-11.2219
▁세르	-11.222
있게	-11.2222
▁드로우	-11.2224
▁조카	-11.2226
▁이라크	-11.2226
▁대책	-11.2227
ね	-11.2234
▁엘리베이터	-11.2234
▁노란색	-11.2234
▁마유	-11.2235
▁시작된다	-11.2237
▁살아있는	-11.2238
▁응용	-11.2238
▁빌런	-11.2241
판정	-11.2243
▁프로리그	-11.2244
BT	-11.2245
▁절친	-11.2248
▁여기까지	-11.2248
UR	-11.225
小	-11.225
뇨	-11.225
그렇	-11.2251
거든	-11.2252
▁인력	-11.2254
▁미나미	-11.2258
▁3~4	-11.2262
▁초콜릿	-11.2266
겜	-11.2266
▁왼손	-11.2266
▁주최	-11.2267
▁가르치	-11.2275
토르	-11.2282
개국	-11.2285
▁양반	-11.2285
▁원형	-11.2288
▁듣지	-11.2288
▁밖에서	-11.2289
▁특이하게도	-11.229
종류	-11.2291
▁찾아볼	-11.2292
▁짐승	-11.2294
▁함락	-11.2296
긁	-11.2298
eat	-11.2302
▁유미	-11.2303
▁메이드	-11.2304
▁출간	-11.2304
▁혈통	-11.2306
▁팀원들	-11.2306
▁피하기	-11.2306
▁무효	-11.2308
▁사무실	-11.2309
▁유입	-11.2312
▁부분이다	-11.2313
▁트레이너	-11.2314
▁체결	-11.2316
억원	-11.2316
▁워프	-11.2316
▁취업	-11.2318
▁침대	-11.2318
▁적당한	-11.2321
빔	-11.2322
▁태국	-11.2326
▁Qu	-11.2327
▁캠프	-11.2328
낀	-11.2329
▁일시적으로	-11.233
▁잦은	-11.2331
act	-11.2335
str	-11.234
▁드래곤볼	-11.2341
▁부르기도	-11.2343
훼	-11.2345
ュ	-11.2345
▁충분	-11.2347
졌던	-11.2347
math	-11.2349
▁오더	-11.2353
▁이번엔	-11.2356
▁하우스	-11.2359
-09	-11.2359
해달라고	-11.2359
혁명	-11.2359
▁통째로	-11.2361
▁셔틀	-11.2362
▁친절	-11.2363
▁양손	-11.2365
테이션	-11.2371
ple	-11.2372
▁떠난다	-11.2373
▁Gu	-11.2374
공단	-11.2377
▁자비	-11.2377
▁출산	-11.238
▁누리	-11.2381
The	-11.2382
▁묘사된다	-11.239
▁직전까지	-11.2391
▷	-11.2393
▁확정되었다	-11.2394
▁시바	-11.2395
▁패널티	-11.2399
▁차지하는	-11.24
체계	-11.2401
▁아들인	-11.2402
▁어울리는	-11.2403
▁광산	-11.2404
▁대해서도	-11.2409
デ	-11.2409
ャ	-11.2409
▁원주민	-11.241
▁퍼즐	-11.2413
~8	-11.2415
해버린다	-11.2415
▁토크	-11.2416
▁백업	-11.2417
▁폴리	-11.2417
▁시작되었다	-11.2418
▁전남	-11.2418
시스템	-11.2421
▁여기에서	-11.2422
▁자신만	-11.2424
▁논문	-11.2425
▁태평양	-11.2426
▁Bl	-11.2426
▁Fr	-11.2427
밴드	-11.2427
▁Ex	-11.243
▁찾아내	-11.2431
▁캐시	-11.2431
▁올랐	-11.2433
▁연봉	-11.2434
▁출범	-11.2436
▁레온	-11.2441
▁원리	-11.2441
젝	-11.2442
▁워크래프트	-11.2442
연장	-11.245
▁쓸모	-11.245
인데다가	-11.2453
▁쫄	-11.2456
편성	-11.2456
▁140	-11.2459
▁않았는데	-11.2459
▁호감	-11.246
▁유용한	-11.246
▁난사	-11.2462
▁상륙	-11.2465
▁딜레이	-11.2465
▁없지	-11.2466
부키	-11.2469
스타일	-11.2469
▁GT	-11.2471
▁후반기	-11.2473
▁장애물	-11.2474
▁연금술	-11.2474
▁먹기	-11.2476
브레이커	-11.2476
▁충분한	-11.2477
▁파울	-11.2479
▁온천	-11.2481
봄	-11.2485
▁수습	-11.2486
ブ	-11.249
▁도깨비	-11.249
▁튕겨	-11.249
▁임금	-11.2493
▁강림	-11.2493
▁방송국	-11.2497
▁악기	-11.2501
tra	-11.2502
▁굉장한	-11.2506
高	-11.2506
▁마드리드	-11.2506
▁모듈	-11.2507
▁아바타	-11.2507
▁경향	-11.251
▁맞붙	-11.251
▁다이아	-11.2513
▁완벽	-11.2516
▁냉정	-11.2517
▁보건	-11.2518
▁지연	-11.2519
▁억제	-11.2519
뽕	-11.2523
▁부숴	-11.2523
▁캐릭	-11.2523
▁인재	-11.2523
▁일주일	-11.2525
▁않으나	-11.2525
▁찬스	-11.2526
▁불과하다	-11.2526
▁무효화	-11.2526
▁대표적	-11.2527
/0	-11.2527
▁기다리고	-11.2527
▁빛나는	-11.2529
▁루이스	-11.253
▁절차	-11.2533
▁이번에도	-11.2535
거라고	-11.2539
ど	-11.2539
▁스트라이커	-11.2539
▁밝혀진다	-11.254
▁만주	-11.2544
▁가능하고	-11.2545
▁이어져	-11.2548
체육	-11.2553
▁밝혔	-11.2554
oss	-11.2554
카이저	-11.2554
샬	-11.2555
눕	-11.2555
年	-11.2555
▁않는다면	-11.2556
▁직원들	-11.2559
▁강해지	-11.2559
▁대전차	-11.2559
▁깔끔	-11.2561
▁있냐	-11.2563
▁흙	-11.257
▁다가가	-11.2573
▁고쳐	-11.2577
▁와카	-11.2581
▁공감	-11.2582
▁싸우게	-11.2582
▁뜻으로	-11.2587
▁길다	-11.2587
せ	-11.2588
▁유튜버	-11.2588
▁구조물	-11.2589
○○	-11.259
▁나루	-11.2594
▁호남	-11.2596
▁열혈	-11.2598
▁두번	-11.2598
▁누구도	-11.2598
바퀴	-11.2599
▁이전부터	-11.2599
▁단발	-11.2603
펌	-11.2604
냄	-11.2604
뻘	-11.2604
▁표면	-11.2606
▁역량	-11.2607
▁실패했다	-11.2608
▁띄우	-11.261
리즘	-11.261
▁멍	-11.2613
▁봤다	-11.2614
▁DP	-11.2616
▁집권	-11.2616
▁미쳐	-11.2618
▁가챠	-11.2619
▁아님	-11.262
▁Su	-11.2621
▁비하	-11.2626
▁War	-11.2626
행성	-11.2627
▁의해서	-11.2627
▁모종	-11.2628
▁어색	-11.2629
▁성씨	-11.2631
▁결계	-11.2632
▁리그에서	-11.2633
떼	-11.2635
▁인공지능	-11.2637
뻥	-11.2637
툭	-11.2637
▁오브젝트	-11.2637
十	-11.2637
▁않으므로	-11.2638
▁드러났다	-11.2638
▁후쿠	-11.2639
▁잊지	-11.2639
▁않음	-11.264
콤보	-11.2643
▁짧아	-11.2643
▁공정	-11.2644
▁상하이	-11.2648
▁플레이어에게	-11.2652
샐	-11.2653
▁노가다	-11.2654
▁Ad	-11.2655
▁제국군	-11.2655
▁뿌려	-11.2657
▁인권	-11.2658
uck	-11.2658
▁컸	-11.2658
▁끼치	-11.2659
▁욕설	-11.2661
▁디스크	-11.2661
▁보러	-11.2665
▁걸그룹	-11.2667
▁곁에	-11.2669
▁이로써	-11.2669
▁차원에서	-11.2674
ree	-11.2676
▁PP	-11.2677
놨	-11.2678
▁끼워	-11.2681
▁블리자드	-11.2686
닦	-11.2686
끊임없이	-11.2686
▁피지컬	-11.2686
▁신형	-11.2688
▁쓰던	-11.2689
▁센서	-11.2692
▁최선	-11.2693
▁떨어지고	-11.2694
▁최정	-11.2695
mb	-11.2695
/5	-11.2697
▁획득할	-11.2697
▁같은데	-11.2699
환경	-11.27
챈	-11.2703
▁유용하다	-11.2703
▁체인지	-11.2703
▁하필이면	-11.2704
▁김용	-11.2705
▁불쌍	-11.2709
▁Ne	-11.271
▁세번째	-11.271
▁순수한	-11.2712
▁여긴	-11.2713
▁우익	-11.2713
▁덴노	-11.2714
▁초보	-11.2714
ger	-11.2714
▁처분	-11.2715
▁역임	-11.2716
▁제공하는	-11.2716
▁우회	-11.2717
빅	-11.2719
딧	-11.2719
▁부천	-11.2719
▁철저히	-11.2719
하니까	-11.2722
▁변수	-11.2723
▁장성	-11.2725
▁우울	-11.2728
▁중력	-11.2728
▁손실	-11.2736
▁베테랑	-11.2736
▁쿠데타	-11.2736
▁답답	-11.2739
▁시골	-11.2739
갔지만	-11.2741
▁제작된	-11.2742
FF	-11.2743
▁발표했다	-11.2745
▁나비	-11.2748
▁전작과	-11.2749
▁매드	-11.2749
day	-11.275
▁기원전	-11.275
▁그림체	-11.2752
ダ	-11.2753
퀄	-11.2753
▁미드필더	-11.2753
▁엄연히	-11.2753
▁마치고	-11.2754
▁우위를	-11.2757
▁확신	-11.2759
▁떨어졌	-11.2761
▁손쉽	-11.2761
테크	-11.2769
▁데빌	-11.277
펫	-11.277
▁메카닉	-11.2771
▁메이저리그	-11.2771
▁싼	-11.2772
▁아까	-11.2776
/20	-11.278
란트	-11.278
▁160	-11.278
계약	-11.2782
▁프로게이머	-11.2786
▁사로잡	-11.2786
▁납득	-11.2787
▁올라갈	-11.2791
헤드	-11.2792
▁모드에서	-11.2794
р	-11.2803
美	-11.2803
▁아레나	-11.2803
▁날뛰	-11.2804
마력	-11.2809
▁개척	-11.2819
▁다가오	-11.2819
▁똑같	-11.2821
딴	-11.2821
▁성적은	-11.2823
▁후술	-11.2824
▁대기업	-11.2825
▁확산	-11.2827
▁귀국	-11.2828
▁이곳에서	-11.2828
▁출루	-11.2829
▁토미	-11.283
▁촉수	-11.283
▁사립	-11.2831
▁아처	-11.2831
▁프라임	-11.2832
▁명단	-11.2833
▁하쿠	-11.2833
▁말하자	-11.2835
▁깃발	-11.2837
▁콤비	-11.2838
▁여러번	-11.2838
▁토큰	-11.2841
▁용자	-11.2841
▁법칙	-11.2841
극장	-11.2842
▁진행된다	-11.2842
▁물품	-11.2842
▁거냐	-11.2843
▁작아	-11.2848
하트	-11.285
▁동반	-11.2852
▁어드벤처	-11.2853
▁먹히	-11.2854
슛	-11.2856
▁타이거	-11.2859
▁일어난다	-11.2861
▁등극	-11.2861
▁음료	-11.2865
▁KOF	-11.2871
▁생체	-11.2873
▁떠났다	-11.2875
▁Man	-11.2882
▁마음대로	-11.2882
탔	-11.2887
▁잡힌	-11.2887
▁알려졌다	-11.289
폭력	-11.2892
▁케빈	-11.2893
▁않았으며	-11.2896
실장	-11.2896
▁학습	-11.2897
▁국어	-11.2898
▁애들	-11.2899
▁갖게	-11.2901
▁안녕	-11.2902
▁곡들	-11.2902
▁수염	-11.2902
▁죄책감	-11.2903
▁일요일	-11.2905
▁만들어졌다	-11.2906
▁실내	-11.2906
▁안정성	-11.2906
▁나뉘	-11.2908
▁생각하지	-11.2909
▁떨어	-11.2912
하느라	-11.2914
▁구성원	-11.2915
▁Ha	-11.2917
▁부착	-11.292
生	-11.292
썸	-11.292
▁히틀러	-11.292
▁이른바	-11.2921
▁슈퍼맨	-11.2922
▁수비수	-11.2923
패치	-11.2924
▁평일	-11.2926
▁강경	-11.2928
▁입문	-11.2934
트랙	-11.2934
▁소통	-11.2935
▁안쪽	-11.2937
▁차이로	-11.2937
▁천천히	-11.2937
숨	-11.2939
▁베이징	-11.2939
있지	-11.2941
▁재건	-11.2942
▁기점	-11.2943
▁에이지	-11.2945
▁재미있는	-11.2951
▁AV	-11.2954
▁초록색	-11.2954
▁기묘한	-11.2954
▁옥상	-11.2955
▁코스프레	-11.2955
▁최적화	-11.2956
▁무난	-11.2957
하우스	-11.2966
▁사법	-11.2971
▁바르셀로나	-11.2971
▁자유한국당	-11.2971
▁피규어	-11.2971
▁정반대	-11.2973
▁부재	-11.2976
스토리	-11.2976
▁유대인	-11.2977
▁선조	-11.2979
▁자르	-11.2984
젬	-11.2988
콰	-11.2988
▁내용이다	-11.2996
하든	-11.3002
▁벨트	-11.3003
▁인스타그램	-11.3005
▁털리	-11.3005
▁더불어민주당	-11.3006
▁여섯	-11.3006
▁소중한	-11.3006
회관	-11.3007
▁대가로	-11.3007
▁변태	-11.3007
▁보냈	-11.3011
▁긍정적인	-11.3014
▁동명	-11.3014
▁One	-11.3015
▁단위로	-11.3016
▁1979	-11.3017
야말로	-11.302
▁끝났	-11.3021
▁호감도	-11.3021
덧	-11.3022
탬	-11.3022
하겠	-11.3023
▁기다려	-11.3024
▁싫다	-11.3025
▁전격	-11.3028
▁갖다	-11.3029
-04	-11.3029
▁분당	-11.3029
▁나타내는	-11.303
▁캐치	-11.3036
▁피어	-11.3038
▁담아	-11.3038
文	-11.3039
▁토요일	-11.304
▁And	-11.3041
ung	-11.3042
▁스케일	-11.3043
▁고려하면	-11.3044
불능	-11.3044
▁뿐이지	-11.3047
▁로보	-11.3047
놨다	-11.3048
orn	-11.3048
▁녹아	-11.3053
▁지키고	-11.3056
뭇	-11.3056
▁중간중간	-11.3056
▁삼성전자	-11.3058
▁종점	-11.306
3.1	-11.3065
▁않을까	-11.3067
▁대표하는	-11.3068
노미야	-11.3068
▁가담	-11.3073
▁퍼지	-11.3074
▁파티원	-11.3074
▁치안	-11.3076
▁전향	-11.3077
▁아무튼	-11.3078
▁없었지만	-11.308
▁하급	-11.3082
▁사용가능	-11.3083
파워	-11.3084
▁sp	-11.3085
스런	-11.3087
▁젖	-11.3088
▁맥주	-11.3089
▁갈색	-11.3089
▁태클	-11.309
왔고	-11.309
▲	-11.3091
▁더빙판	-11.3092
▁배역	-11.3095
캐스트	-11.3097
꼴	-11.3098
▁정석	-11.3099
공화국	-11.3099
▁육상	-11.3101
까봐	-11.3104
▁광선	-11.3106
▁퇴각	-11.3106
붉	-11.3107
▁세월호	-11.3107
▁상징하는	-11.3108
▁생김새	-11.3108
▁헝가리	-11.3108
꽁	-11.3108
▁BPM	-11.3108
▁비공식	-11.3108
▁순간이동	-11.3109
▁드문	-11.311
▁선보였다	-11.311
▁탓인지	-11.3112
right	-11.3112
▁유우키	-11.312
unt	-11.3121
▁인접	-11.3123
거래	-11.3123
▁JTBC	-11.3125
▁힙합	-11.3125
▁무거운	-11.3125
▁성과를	-11.3127
놓으면	-11.3127
▁면적	-11.3127
▁대박	-11.3132
tal	-11.314
▁분산	-11.3142
水	-11.3142
팰	-11.3143
▁UEFA	-11.3143
▁프리미어	-11.3143
▁잃어버린	-11.3143
▁파밍	-11.3144
▁단검	-11.3144
▁멋대로	-11.3146
▁날려버리	-11.3146
tro	-11.3147
com	-11.3149
▁상황이라	-11.315
되었습니다	-11.3151
▁사항은	-11.3151
▁결제	-11.3153
▁중거리	-11.3158
▁크레딧	-11.316
▁스텝	-11.3163
▁빨간색	-11.3166
▁것인가	-11.3168
멤버	-11.3172
HO	-11.3174
ds	-11.3176
▁사용해서	-11.3179
▁포획	-11.3185
▁내보내	-11.3186
▁무난하게	-11.3188
▁데모	-11.3189
▁물려	-11.319
ニ	-11.3194
▁유나이티드	-11.3195
▁트윗	-11.3195
메이트	-11.3198
▁모르겠다	-11.3202
좀	-11.3204
▁너머	-11.3204
▁구르	-11.3206
▁그러니	-11.3207
▁젊	-11.3209
▁클린	-11.3212
▁이럴	-11.3216
▁히나	-11.3217
▁잡았다	-11.3217
▁부유	-11.3218
▁학문	-11.322
▁우측	-11.322
▁항해	-11.3221
▁떠돌	-11.3227
▁롤드컵	-11.3229
▁???	-11.3229
▁창문	-11.3229
RT	-11.3231
▁수비력	-11.3232
▁토마스	-11.3235
쁜	-11.3238
▁우연	-11.324
▁세포	-11.3241
▁살던	-11.3241
aster	-11.3243
▁암호	-11.3244
슌	-11.3247
▁소금	-11.3253
▁리틀	-11.3253
공장	-11.3253
라던가	-11.3258
▁언급된다	-11.3259
꿈	-11.3259
▁도배	-11.3264
졌으나	-11.3266
ba	-11.3267
▁광물	-11.3268
▁버틸	-11.327
▁진행되는	-11.3272
▁스컬	-11.3273
▁않나	-11.3273
▁대변	-11.3275
숲	-11.3276
▁본편에서	-11.328
▁필리핀	-11.3282
▁방사능	-11.3282
▁드러낸	-11.3283
▁늦어	-11.3285
▁키요	-11.3286
▁트윈	-11.3287
▁안습한	-11.3287
▁이어진	-11.3288
▁1981	-11.329
▁리즈	-11.3291
▁Sa	-11.3294
▁네티즌	-11.3299
▁들어가기	-11.33
▁아닐까	-11.33
▁스노우	-11.33
▁실체	-11.3304
직원	-11.3305
ka	-11.3311
▁끔찍한	-11.3312
▁갇혀	-11.3317
▁정상적으로	-11.3321
▁모터	-11.3324
▁놀라운	-11.3327
▁탐사	-11.3328
▁부각되	-11.3329
不	-11.3335
▁자존심	-11.3335
▁내렸다	-11.3335
▁스피릿	-11.3336
▁최저	-11.3337
▁신경쓰	-11.3341
▁여러분	-11.3342
둑	-11.3342
▁추천한다	-11.3343
▁노말	-11.3343
▁주목받	-11.3344
▁흑막	-11.3345
▁2.5	-11.3348
▁환생	-11.3349
▁상대하기	-11.3351
▁UP	-11.3351
▁구해주	-11.3353
▁탄핵	-11.3354
▁발판	-11.3357
스토어	-11.3358
▁사라졌	-11.3359
ull	-11.3359
▁DPS	-11.3359
닭	-11.3368
▁간단하게	-11.337
▁멍청	-11.3372
도서관	-11.3373
▁출혈	-11.3373
▁국민들	-11.3374
2000	-11.3376
▁일종	-11.338
LO	-11.3381
홉	-11.3387
▁적절히	-11.3388
▁진지하게	-11.3389
▁존재하며	-11.3389
▁몇번	-11.3391
▁경제적	-11.3403
▁충족	-11.3403
▁지향	-11.3404
촬	-11.3405
밈	-11.3405
▁멘붕	-11.3405
之	-11.3406
▁몸통	-11.341
▁절벽	-11.3411
▁변장	-11.342
스커	-11.3421
ner	-11.3421
▁건드리	-11.3423
짠	-11.3423
▁즐길	-11.3423
▁이세계	-11.3423
▁목걸이	-11.3423
▁All	-11.3426
▁크리스티	-11.3428
▁찾고	-11.3429
▁포즈	-11.3431
▁역사적	-11.3434
▁반짝	-11.3435
▁노무현	-11.3441
▁짧게	-11.3445
▁모욕	-11.3447
CC	-11.3449
row	-11.3451
▁주축	-11.3452
▁Car	-11.3452
파운드	-11.3453
▁굴리	-11.3454
▁의자	-11.3457
▁사전차단	-11.3459
▁막혀	-11.3459
▁엔드	-11.346
▁선거구	-11.3461
▁침착	-11.3461
▁익히	-11.3463
▁통하지	-11.3466
over	-11.3469
▁마땅	-11.3471
▁포탈	-11.3474
▁법원	-11.3474
▁로그인	-11.3475
▁움직일	-11.3476
헥	-11.3476
▁모델링	-11.3479
TC	-11.3479
▁아스날	-11.3482
▁참모	-11.3488
▁이루어졌다	-11.3489
ろ	-11.3494
▁World	-11.3494
▁극단적인	-11.3494
▁아쿠아	-11.3495
▁트로피	-11.3495
▁유니버스	-11.3496
▁발생했다	-11.3498
▁물체	-11.3499
▁그곳에서	-11.35
▁현금	-11.3503
▁연설	-11.3505
프레임	-11.3506
삐	-11.3511
▁가졌	-11.3518
▁자칭	-11.3521
▁승차	-11.3524
▁높아서	-11.3525
▁디아블로	-11.353
▁스나이퍼	-11.353
샹	-11.353
해버린	-11.3534
▁밑에서	-11.3535
▁조명	-11.3537
▁트릭	-11.3538
워즈	-11.3539
▁친척	-11.3541
▁막차	-11.3542
▁워싱턴	-11.3548
▁스카웃	-11.3549
AF	-11.355
건담	-11.3552
▁아카네	-11.3563
챔	-11.3565
잣	-11.3566
太	-11.3566
▁틀린	-11.3567
▁죽였다	-11.3568
▁추측된다	-11.3569
▁혼혈	-11.3572
▁크래	-11.3577
▁KO	-11.3582
▁녹화	-11.3584
쑥	-11.3584
▁아이디어	-11.3585
▁맞춰서	-11.3587
▁이놈	-11.3587
▁몸매	-11.3587
▁보이기	-11.3589
!!"	-11.359
밴	-11.3592
높	-11.3597
▁포스터	-11.3601
ᅳ	-11.3602
▁드물게	-11.3612
짬	-11.362
▁고등학생	-11.362
地	-11.362
▁부동산	-11.3621
▁맞았다	-11.3624
eep	-11.3624
▁잭슨	-11.3625
▁무능	-11.3626
▁생방송	-11.3629
▁보좌	-11.3631
▁규제	-11.3632
▁충격적인	-11.3634
▁부패	-11.3635
▁아니게	-11.3636
▁실존	-11.3637
▁조약	-11.3637
▁벙커	-11.3639
▁Col	-11.3639
VER	-11.364
▁돌아갈	-11.3647
▁가능하게	-11.3653
▁쇼크	-11.3655
▁포터	-11.3656
パ	-11.3657
▁스티븐	-11.3657
팝	-11.3658
▁겉으로	-11.3659
메트	-11.3659
▁스텟	-11.366
▁나이프	-11.3661
▁복사	-11.3667
▁심하다	-11.3669
▁듀오	-11.3669
▁백성들	-11.3669
▁맞추기	-11.3672
▁승진	-11.3674
▁엔지니어	-11.3675
팜	-11.3675
▁소련군	-11.3676
▁교도소	-11.3676
플레	-11.3678
▁통솔	-11.3682
▁도루	-11.3683
▁선박	-11.3685
▁무쌍	-11.3685
▁변명	-11.3687
red	-11.3692
ガ	-11.3693
쨩	-11.3693
▁훼손	-11.3693
▁거두었다	-11.3695
▁어려울	-11.3696
자로서	-11.3703
▁아리아	-11.3705
▁벌어졌다	-11.371
〈	-11.3712
▁경상북도	-11.3712
app	-11.3714
▁사무라이	-11.3715
▁New	-11.3715
▁네크로	-11.3717
▁에미	-11.3721
저항	-11.3721
▁평점	-11.3721
▁여자아이	-11.3722
했음	-11.3723
▁사퇴	-11.3724
▁잡았	-11.3726
댓	-11.373
넛	-11.373
▁브라이언	-11.373
KR	-11.373
▁날아오	-11.3731
다닌다	-11.3733
▁잔혹	-11.3734
▁침투	-11.374
port	-11.3747
▁만루	-11.3753
▁성실	-11.3753
앨범	-11.3754
▁은폐	-11.3754
▁종결	-11.3755
페이스	-11.3755
▁탐색	-11.3756
able	-11.3756
▁바디	-11.3757
릇	-11.3757
▁무난한	-11.3763
▁높여	-11.3764
〉	-11.3767
-13	-11.3774
be	-11.3783
▁나타났다	-11.3784
ノ	-11.3785
▁Windows	-11.3785
ハ	-11.3785
▁버텨	-11.3785
▁믿음	-11.3786
▁포스트시즌	-11.3786
▁교과서	-11.3786
▁오토바이	-11.3787
▁정황상	-11.3787
▁쏘아	-11.3789
▁사촌	-11.3792
▁입는다	-11.3795
ning	-11.3796
▁드레스	-11.3798
딪	-11.3803
▁스태프	-11.3804
國	-11.3804
최순실	-11.3804
▁받아야	-11.3804
▁그러므로	-11.3806
쭉	-11.3808
되었는지	-11.3808
▁마도카	-11.3815
▁이해할	-11.3815
ton	-11.3817
▁넉백	-11.3822
▁힘입어	-11.3822
▁줄여서	-11.3823
▁복합	-11.3823
클레	-11.3827
▁주사위	-11.3827
▁마오	-11.3827
▁선장	-11.3827
여명	-11.3835
▁빠져나가	-11.384
았으며	-11.384
▁장남	-11.3841
▁신나게	-11.3843
▁봉쇄	-11.3844
▁달라진다	-11.3845
▁래퍼	-11.3846
▁On	-11.3847
▁조금이라도	-11.3848
▁입증	-11.3848
▁GM	-11.3849
▁알려지지	-11.3854
▁맺어	-11.3856
ker	-11.3856
FL	-11.3857
ᅵ	-11.3859
▁바둑	-11.3864
▁믿지	-11.3865
▁스폰서	-11.3866
▁렌즈	-11.3866
▁추후	-11.3867
▁민감	-11.3873
▁얻었	-11.3877
랴	-11.3878
▁망토	-11.3878
▁없습니다	-11.3884
어택	-11.3886
▁Part	-11.3886
진흥	-11.389
▁것입니다	-11.3891
▁호크	-11.3891
▁문양	-11.3893
▁악행	-11.3895
▁서클	-11.3896
▁데이비드	-11.3896
▁슬픔	-11.3897
▁뿐이라	-11.3898
하늘	-11.3899
▁교토	-11.3906
▁어려웠	-11.3907
▁정황	-11.3907
잼	-11.3915
二	-11.3915
▁심각하게	-11.3915
▁잡몹	-11.3915
▁영양	-11.3917
▁근본적	-11.3918
▁독백	-11.392
런스	-11.3921
▁물리치	-11.3921
습니까	-11.3922
▁매각	-11.3924
▁있을까	-11.3932
▁깨끗	-11.3934
▁헬멧	-11.3934
▁리퍼	-11.3935
▁그레이트	-11.3936
nn	-11.3936
▁+4	-11.3938
▁큐어	-11.3939
ov	-11.394
▁방심	-11.3941
작업	-11.3943
▁실현	-11.3943
▁나폴레옹	-11.3952
▁드워프	-11.3952
▁니콜라	-11.3953
▁저질렀	-11.3953
▁사용되었다	-11.3954
▁스미스	-11.3955
▁역습	-11.3956
▁초기화	-11.3964
▁병역	-11.3965
채널	-11.3966
▁없어졌다	-11.3966
▁애칭	-11.3967
▁페스티벌	-11.3971
굶	-11.3971
▁녀석들	-11.3971
▁오른손	-11.3974
▁당연하지만	-11.3975
▁떨어질	-11.3976
▁근대	-11.3976
▁유사하다	-11.3977
▁모순	-11.3978
▁본관	-11.398
▁날린다	-11.3982
ich	-11.3987
▁모아서	-11.3989
▁장본인	-11.399
▁지지율	-11.3991
▁모르지만	-11.3992
▁타이틀곡	-11.4001
▁패전	-11.4005
▁싫어한다	-11.4007
▁프로듀스	-11.4009
▁카리스마	-11.4009
▁둘러싸	-11.4009
▁유치원	-11.401
▁살인사건	-11.401
▁어째서인지	-11.4011
bu	-11.4011
왔는데	-11.4011
▁퇴치	-11.4014
홈	-11.4016
▁진에어	-11.4018
▁60%	-11.4019
▁맞았	-11.4021
▁능력자	-11.4021
하길	-11.4023
▁정체성	-11.4024
낌	-11.4028
▁저렇게	-11.4028
川	-11.4028
▁라이온즈	-11.4028
▁엔트리	-11.4032
▁견해	-11.4034
▁최악	-11.4035
폴리스	-11.4038
▁태워	-11.4038
▁열정	-11.4044
▁주택	-11.4044
씻	-11.4046
젓	-11.4046
하다보니	-11.4047
파괴	-11.4048
ier	-11.4053
▁징역	-11.4053
▁쓰이지	-11.4055
▁운영진	-11.4057
▁품질	-11.4062
▁왕복	-11.4064
훌	-11.4065
明	-11.4065
▁만난다	-11.4067
▁말씀	-11.4067
ose	-11.4068
▁띄워	-11.4071
껍질	-11.4071
▁다닐	-11.4071
▁훈장	-11.4071
▁보낸다	-11.4072
▁아랫	-11.4077
▁보자면	-11.408
▁완공	-11.4087
▁3.5	-11.4091
▁깔끔하게	-11.4097
볼넷	-11.4099
연구소	-11.4101
道	-11.4103
▁달려들	-11.4104
▁최하위	-11.4105
~7	-11.4107
라든지	-11.4108
▁바쿠	-11.4109
▁탐지	-11.4113
▁기껏	-11.4116
▁풀린	-11.4118
잦	-11.412
▁대학생	-11.412
テ	-11.4122
▁수수께끼	-11.4122
▁시상식	-11.4123
▁민주주의	-11.4128
lf	-11.4131
▁만능	-11.4139
君	-11.4142
▁타이거즈	-11.4142
▁챔프	-11.4142
▁왕비	-11.4143
▁고치	-11.4144
▁가성비	-11.4144
▁낭비	-11.4147
▁재앙	-11.4156
▁금발	-11.4159
▁프랑스어	-11.416
▁돌연변이	-11.4161
▁자이언트	-11.4161
▁까다롭	-11.4161
▁러시	-11.4164
▁스티브	-11.4167
▁스즈키	-11.4167
▁에반	-11.4169
▁참사	-11.4172
받기	-11.4173
왕후	-11.4177
콥	-11.418
▁리처드	-11.418
▁여겨지	-11.418
STER	-11.4181
물질	-11.4182
▁압축	-11.4183
▁마친	-11.4187
▁있음에도	-11.4188
tur	-11.4188
댄다	-11.4193
▁컸다	-11.4195
▁not	-11.4196
LS	-11.4196
셨다	-11.4197
▁배울	-11.4198
늄	-11.4199
▁돌아온다	-11.4199
국장	-11.4201
▁가해자	-11.4204
버스터	-11.4207
클래스	-11.4212
▁먹여	-11.4214
▁80%	-11.4217
▁스코틀랜드	-11.4218
▁토키	-11.4218
▁앵커	-11.4218
▁바란다	-11.422
▁평상시	-11.422
▁국군	-11.4224
▁학대	-11.4227
SL	-11.4235
▁라스트	-11.4235
얼마든지	-11.4235
▁주장했다	-11.4237
바야시	-11.4239
▁로저	-11.4239
▁애용	-11.4239
차고지	-11.4242
▁왕실	-11.4243
그런	-11.4244
▁전반적인	-11.4244
교차로	-11.4249
▁재평가	-11.4249
▁자신감	-11.425
▁벨기에	-11.4257
▁예쁘	-11.426
ild	-11.4261
▁등지에서	-11.427
쓴	-11.4271
↘	-11.4276
▁이듬해	-11.4276
▁흥분	-11.4277
JP	-11.4279
▁향후	-11.4283
▁포탄	-11.4283
▁좀더	-11.4285
▁영감	-11.4286
▁기동력	-11.4287
▁빼앗기	-11.4293
ze	-11.4293
land	-11.4295
캇	-11.4296
▁오죽하면	-11.4296
▁남동생	-11.4296
었음에도	-11.4296
▁유격수	-11.4296
▁씨앗	-11.4297
▁다르지만	-11.4304
▁보낼	-11.4305
▁포스트	-11.4307
▁종영	-11.4308
디언	-11.4308
night	-11.4314
NS	-11.4314
▁특화된	-11.4314
†	-11.4315
▁Team	-11.4315
댔	-11.4315
▁대대적	-11.4316
▁리버풀	-11.4316
▁페어리	-11.4316
▁2:0	-11.4319
gi	-11.432
▁+5	-11.4324
▁탈취	-11.4326
▁등장하기	-11.4327
▁압력	-11.4328
까요	-11.433
드라마	-11.4331
▁누구나	-11.4333
ᄒ	-11.4334
▁1945	-11.4335
▁아담	-11.4338
▁늘어난다	-11.4343
999	-11.4347
▁디자이너	-11.4354
▁리볼버	-11.4354
▁아이러니	-11.4354
▁격려	-11.4354
▁갖춰	-11.4355
▁농업	-11.4359
▁병행	-11.4362
▁내외	-11.4368
▁협조	-11.4371
▁간섭	-11.4373
▁저렴	-11.4374
▁어째서	-11.438
▁퍼스트	-11.4381
ina	-11.4381
▁관통력	-11.4381
▁확인되었다	-11.4382
▁알았다	-11.4384
▁강점	-11.4387
▁가이드	-11.4387
▁최종전	-11.4391
▁별개의	-11.4392
т	-11.4393
ゃ	-11.4393
行	-11.4393
無	-11.4393
ult	-11.4393
▁침몰	-11.4395
▁너희	-11.4404
ail	-11.4404
왔으며	-11.4408
ox	-11.4412
줍	-11.4413
▁뿐더러	-11.4413
TION	-11.4413
▁묻는다	-11.4421
라이드	-11.4425
뭐	-11.443
▁몰랐다	-11.443
▁라인하르트	-11.4432
▁엉덩이	-11.4433
▁유재석	-11.4433
게이트	-11.4433
▁PK	-11.4437
▁민폐	-11.4439
▁초청	-11.4441
▁매출	-11.4442
▁숙청	-11.4444
노르	-11.4446
▁배급	-11.4446
해지기	-11.445
▁찔러	-11.4452
▁2017-11-	-11.4453
▁검증	-11.4453
▁박정희	-11.4455
▁안드레	-11.4456
▁트래	-11.4456
▁초보자	-11.446
실험	-11.4463
▁하나같이	-11.4467
깔	-11.4469
▁tr	-11.447
엣	-11.447
▁변호	-11.4471
벙	-11.4472
▁부산광역시	-11.4472
▁덴마크	-11.4472
▁존중	-11.4473
▁히드라	-11.4479
▁라이언	-11.4485
▁놀러	-11.4492
▁강함	-11.4493
▁에디션	-11.4494
▁잡는다	-11.4497
▁1973	-11.4501
▁한꺼	-11.4502
ash	-11.4503
▁토대로	-11.4507
心	-11.4511
▁엘리자베스	-11.4511
▁항공모함	-11.4511
지않고	-11.4512
곧	-11.4513
▁밝혀지지	-11.4516
▁신데렐라	-11.4531
▁이래저래	-11.4531
섀	-11.4531
ᄋ	-11.4531
▁탱킹	-11.4531
▁삽질	-11.4531
미디어	-11.4532
▁플랜	-11.4533
▁검토	-11.4534
렇	-11.4535
▁만렙	-11.454
▁농장	-11.454
▁관객들	-11.454
▁감당	-11.4541
사관학교	-11.4545
▁좋았다	-11.4545
▁출동	-11.4547
▁떼어	-11.4547
新	-11.4551
뺨	-11.4551
▁맷집	-11.4551
▁보여주면서	-11.4555
▁면허	-11.4556
▁본다면	-11.4556
▁본격	-11.4557
▁so	-11.457
갸	-11.4571
pi	-11.4571
있지만	-11.4571
▁애쉬	-11.4572
▁감추	-11.4573
▁루프	-11.4575
▁주술	-11.4576
▁배리어	-11.4584
얄	-11.4586
▁가능하기	-11.4587
▁부탁한다	-11.4588
▁미도리	-11.459
▁제치고	-11.459
花	-11.4591
캘	-11.4591
▁버서커	-11.4591
▁표적	-11.4592
트럭	-11.4598
▁묻혀	-11.4598
▁드러난	-11.4599
▁지혜	-11.4599
▁땅볼	-11.46
▁넘긴	-11.4601
▁의학	-11.4601
cle	-11.4604
▁남학생	-11.4606
▁맹세	-11.4607
얽	-11.4611
▁싱가포르	-11.4611
댐	-11.4611
▁휴대폰	-11.4611
▁엑시즈	-11.4611
光	-11.4611
▁상술한	-11.4611
▁폴아웃	-11.4612
▁무엇이	-11.4613
▁최강자	-11.4613
▁축구선수	-11.4614
MM	-11.4621
라곤	-11.4623
뻗	-11.463
▁까다로운	-11.4631
▁트랜스	-11.4631
▁무방하다	-11.4631
뿔	-11.4633
▁취재	-11.4633
▁죽이지	-11.4636
▁좌측	-11.4636
▁점심	-11.4637
▁완벽히	-11.4637
VO	-11.4644
LI	-11.4649
東	-11.4651
▁못했지만	-11.4652
▁알려준다	-11.4653
랬	-11.4669
▁안정적으로	-11.4669
해버리는	-11.467
땀	-11.4671
▁넓어	-11.4671
▁원숭이	-11.4671
ool	-11.4672
▁마찰	-11.4673
▁뽑아내	-11.4674
▁졸업식	-11.4681
▁페이크	-11.4686
▁마틴	-11.4687
▁떨어져서	-11.4689
野	-11.4691
▁저글링	-11.4691
▁전동차	-11.4692
5,000	-11.4695
▁위험하다	-11.4696
▁저렴한	-11.4698
▁Lu	-11.47
▁들어보면	-11.4701
▁Gra	-11.4701
by	-11.4702
▁순서대로	-11.4703
ode	-11.4706
▁붉은색	-11.4708
▁밀어내	-11.471
▁불리며	-11.4711
▁발키리	-11.4713
왈	-11.4715
▁그릇	-11.4716
▁편의점	-11.472
▁쥐어	-11.4724
go	-11.4727
▁레이디	-11.4731
▁스텔스	-11.4732
▁이명박	-11.4732
して	-11.4733
▁종점행	-11.4736
서비스	-11.4736
▁의외	-11.4738
▁터보	-11.4739
▁실려	-11.4742
▁Str	-11.4744
▁찬양	-11.4746
▁같았	-11.4748
▁Day	-11.475
▁삭제되었다	-11.475
따라	-11.4751
風	-11.4752
갱	-11.4756
ike	-11.476
ek	-11.4763
▁산맥	-11.4763
▁태생	-11.4764
민주당	-11.4764
▁1978	-11.4765
▁HE	-11.4767
▁찍었다	-11.4768
종합	-11.4772
껄	-11.4772
▁아마추어	-11.4772
▁욕심	-11.4774
▁히가시	-11.4777
▁간접적으로	-11.4777
▁간판	-11.4778
▁모르겠지만	-11.478
▁대쉬	-11.478
▁유머	-11.478
nchor	-11.4782
▁점검	-11.4788
카쿠	-11.4791
삽	-11.4791
с	-11.4793
▁나뉜다	-11.4793
▁아르바이트	-11.4793
▁테오	-11.4793
▁계략	-11.4796
▁벗겨	-11.4798
▁버스트	-11.4798
ONE	-11.4799
▁많았던	-11.4803
됐고	-11.4806
▁붙었다	-11.4807
뷔	-11.481
▁시카고	-11.4815
▁워리어	-11.4817
▁따왔다	-11.4819
▁위쪽	-11.482
아프리카	-11.4821
▁폭격기	-11.4832
▁뚜렷	-11.4834
▁소꿉친구	-11.4834
▁스타워즈	-11.4835
▁동력	-11.4836
동맹	-11.4837
▁갱신	-11.4844
ero	-11.4847
▁일람	-11.4853
므	-11.4854
▁극대화	-11.4855
▁노릇	-11.4858
대원들	-11.486
▁홀리	-11.4861
되긴	-11.4864
▁올라갔다	-11.4873
▁급식	-11.4873
▁메디	-11.4874
WA	-11.4881
잭	-11.4881
▁중반부	-11.4893
▁글씨	-11.4893
↑	-11.4895
▁찾았	-11.4905
▁마술사	-11.4906
▁남았다	-11.4907
▁예고편	-11.4911
▁신경쓰지	-11.4912
ical	-11.4913
▁튀어	-11.4914
▁모임	-11.4915
▁뜨거운	-11.4916
▁플라즈마	-11.4916
▁제조사	-11.492
마켓	-11.4923
펄	-11.4923
▁슬퍼	-11.4932
▁놀리	-11.4932
下	-11.4936
▁휩쓸	-11.4936
궈	-11.4936
った	-11.4937
▁순천	-11.4937
から	-11.4938
▁핑계	-11.4938
▁충분하다	-11.4944
▁슬슬	-11.4945
▁한국시리즈	-11.4946
▁레이싱	-11.4947
▁성공적으로	-11.4949
전력	-11.4955
ィ	-11.4957
ズ	-11.4957
星	-11.4957
▁소규모	-11.4957
▁착륙	-11.4959
▁과격	-11.4959
▁돌아왔	-11.4961
하셨	-11.4964
▁보았다	-11.4965
칩	-11.4966
▁찰스	-11.4971
▁미소녀	-11.4975
cy	-11.4976
쪼	-11.4978
▁떨어뜨리	-11.4978
ric	-11.4985
턱	-11.4987
rr	-11.4989
▁과언	-11.499
테이크	-11.4994
▁묻어	-11.4994
▁입었다	-11.4998
낯	-11.4999
맑	-11.4999
▁외곽	-11.5001
▁알아내	-11.5006
▁두뇌	-11.5013
목록	-11.5014
▁체중	-11.5017
베이스	-11.5018
었어	-11.5018
베르크	-11.5019
대륙	-11.5021
▁70%	-11.5022
▁재계약	-11.5025
▁쿄코	-11.5032
▁적힌	-11.5032
▁함장	-11.5034
▁총합	-11.5036
▁선보인	-11.5037
▁창작물	-11.5038
▁숙소	-11.5039
휩	-11.504
魔	-11.504
▁뚫어	-11.5045
▁탄압	-11.5047
▁대기시간	-11.5048
▁트윈스	-11.5059
햇	-11.5061
▁인도네시아	-11.5061
▁늘어났다	-11.5063
어머니	-11.5064
▁아수라	-11.5067
▁넣었다	-11.5069
▁불쾌	-11.507
▁합작	-11.508
▁후술할	-11.5082
▁도와준	-11.5082
▁빼앗아	-11.5083
▁탈환	-11.5086
▁프로야구	-11.5086
gn	-11.5086
▁성기사	-11.5088
▁잔류	-11.5093
other	-11.5094
▁않으려	-11.5099
젯	-11.5103
ᄃ	-11.5103
▁손권	-11.5103
手	-11.5103
주겠다고	-11.5103
▁사회주의	-11.5105
▁블럭	-11.5105
▁NBA	-11.5106
0~1	-11.5107
▁커플링	-11.5107
~30	-11.5112
▁죄수	-11.5114
엉	-11.5115
▁국방부	-11.5117
▁FW	-11.5118
▁서울대학교	-11.512
李	-11.5124
욘	-11.5124
▁아쉬움	-11.5124
▁쓰러져	-11.5125
▁가리키는	-11.5125
▁테이블	-11.5129
통합	-11.5141
굉	-11.5145
▁아테나	-11.5146
▁나눈	-11.515
▁흉악	-11.5151
하느냐	-11.5152
▁목욕	-11.5153
▁맡았던	-11.5158
긍	-11.5166
딥	-11.5167
▁등장인물들	-11.5179
▁이리저리	-11.5188
▁퍼펙트	-11.5188
▁무한도전	-11.5189
▁감금	-11.5202
▁지냈다	-11.5202
▁않던	-11.5205
블레이드	-11.5205
▁강릉	-11.5205
패턴	-11.5207
▁맹활약	-11.5209
▁우두머리	-11.5209
▁클리셰	-11.5209
▁가깝게	-11.5209
해놓고	-11.521
▁특급	-11.5213
▁pro	-11.5214
▁평판	-11.5216
▁스탭	-11.5216
▁Mk	-11.5218
che	-11.5218
▁좋겠다	-11.5222
페이즈	-11.5223
▁싸운	-11.5227
▁극악	-11.523
ctor	-11.5231
해주지	-11.5237
▁야구장	-11.5242
▁세웠다	-11.5242
▁멈춰	-11.5252
▁상냥	-11.5252
▁어나더	-11.5252
▁오렌지	-11.5252
▁베를린	-11.5252
▁우호적	-11.5255
▁90%	-11.5262
▁나왔지만	-11.5264
▁포션	-11.5264
명씩	-11.5264
▁위함	-11.5266
▁Ste	-11.5267
▁당연하다	-11.5268
▁0.3	-11.5269
▁텔레	-11.5272
▁날카로운	-11.5273
▁니코니코	-11.5273
▁최상급	-11.5273
▁깨어나	-11.5274
였는지	-11.5275
스텔라	-11.5277
▁김성근	-11.5278
▁그리핀	-11.5278
▁마인드	-11.5282
$	-11.5288
하다보면	-11.5292
늪	-11.5294
▁철저하게	-11.5294
EB	-11.5299
▁견디	-11.5299
렸으나	-11.5301
atch	-11.5307
▁마을버스	-11.5307
▁보스턴	-11.5308
▁흉내	-11.5311
▁주의하자	-11.5312
~15	-11.5315
뜸	-11.5316
▁페르소나	-11.5316
▁여주인공	-11.5318
▁빨아	-11.532
▁강아지	-11.5321
▁맡는다	-11.5321
▁진술	-11.5323
듯하다	-11.5325
▁정글러	-11.5329
dr	-11.5329
▁운송	-11.5331
▁조별리그	-11.5337
▁루키	-11.5337
▁막강한	-11.5338
▁벌써	-11.5339
▁프랭크	-11.534
▁노부나가	-11.534
▁대체적으로	-11.5344
▁숨어있	-11.5345
렸으며	-11.5348
▁메리트	-11.5349
▁기력	-11.5353
0900	-11.5356
텅	-11.5359
▁민주화	-11.536
▁지킬	-11.5362
▁컴백	-11.5364
▁하지메	-11.5369
▁1977	-11.5371
▁행방	-11.5374
▁불참	-11.5379
海	-11.538
▁Super	-11.5381
▁짝사랑	-11.5381
▁오페라	-11.5381
▁Du	-11.5382
▁모으는	-11.5384
▁팬티	-11.5393
▁용암	-11.5399
▁요격	-11.5401
▁죽이기	-11.5402
▁마케팅	-11.5402
▁벗어난	-11.5402
▁다니엘	-11.5408
▁골프	-11.5409
▁소모량	-11.5411
▁정신력	-11.5411
▁특공	-11.5416
▁베어스	-11.5416
▁올라간	-11.5417
▁지나친	-11.5418
▁화폐	-11.5419
▁BJ	-11.542
モ	-11.5424
##	-11.5425
▁터뜨리	-11.5425
▁찰나	-11.5427
▁최상위	-11.5428
▁적혀	-11.5432
▁한정판	-11.5439
▁빈약	-11.5445
的	-11.5445
▁얼티밋	-11.5446
▁도대체	-11.5446
▁발탁	-11.5449
▁USB	-11.545
gen	-11.5454
▁맨유	-11.5463
get	-11.5463
▁초등학생	-11.5467
▁컨디션	-11.5467
랏	-11.5467
▁어렵게	-11.5467
▁쓰이고	-11.5467
▁줄어들었다	-11.547
▁넣으면	-11.5489
▁우크라이나	-11.5489
뜰	-11.5489
▁쓰러트리	-11.5489
▁헤드샷	-11.549
▁욕망	-11.5497
▁집계	-11.5505
ring	-11.5505
▁여겼	-11.5506
▁막으려	-11.5508
▁덧붙	-11.5509
베리아	-11.5509
▁베이비	-11.551
▁다름아닌	-11.5511
▁튀어나오	-11.5511
▁에드워드	-11.5512
▁에밀리	-11.5514
▁테크닉	-11.5514
▁Night	-11.5514
함으로서	-11.5522
▁스파이더맨	-11.5533
푹	-11.5533
▁스바루	-11.5533
▁어찌보면	-11.5535
▁lv	-11.5536
▁홈경기	-11.5539
ise	-11.5546
8.1	-11.5546
▁남았	-11.5549
▁믿어	-11.5553
▁시크릿	-11.5555
▁남자친구	-11.5555
▁영원한	-11.5556
omb	-11.5557
▁Up	-11.5558
▁의도적으로	-11.5558
▁응급	-11.5561
▁따라잡	-11.5561
였으니	-11.5564
걸음	-11.5565
TM	-11.5569
▁장풍	-11.5569
▁리셋	-11.557
▁빠졌다	-11.5574
▁from	-11.5577
꾀	-11.5577
▁유니콘	-11.5579
지않는	-11.5579
▁이용객	-11.5582
▁받으면서	-11.5596
▁야망	-11.5596
갓	-11.5599
왓	-11.5599
ば	-11.5599
▁투니버스	-11.5599
城	-11.5599
▁무소속	-11.5599
tale	-11.5602
▁무지개	-11.5602
▁물려받	-11.5602
▁이글스	-11.5603
▁않자	-11.5604
▁바텀	-11.5608
▁액체	-11.5616
▁출석	-11.5619
▁인피니티	-11.5621
▁더러운	-11.5621
▁말아먹	-11.5622
▁슬라이드	-11.5622
ator	-11.563
크래프트	-11.5634
▁넣었	-11.5635
▁브레스	-11.5638
▁은근	-11.5639
대로라면	-11.564
쎄	-11.5643
퐁	-11.5643
▁할로윈	-11.5644
엑	-11.5644
▁게시물	-11.5645
▁덤벼	-11.5645
▁존재하는데	-11.5648
▁돌아올	-11.565
▁특수능력	-11.5651
▁공헌	-11.5653
▁집필	-11.5657
▁의정부	-11.5657
쩔	-11.5661
▁인천광역시	-11.5666
▁콘스탄	-11.5666
▁먹었	-11.5672
▁테마곡	-11.5675
▁보여줄	-11.5696
▁리버스	-11.5699
▁뛰어들	-11.5702
ALL	-11.5704
出	-11.571
짚	-11.571
▁얌전	-11.571
▁공산주의	-11.5711
▁구독자	-11.5711
(	-11.5712
▁Time	-11.5714
▁GSL	-11.5714
▁레이븐	-11.5715
▁간접	-11.5716
▁NT	-11.572
vel	-11.5726
해주었다	-11.5726
▁깃털	-11.5733
▁손목	-11.5735
▁옐로	-11.5735
▁적용되는	-11.5735
엠	-11.5735
▁혹평	-11.5737
▁아마존	-11.5738
▁리믹스	-11.5743
▁꾸미	-11.5753
▁경상남도	-11.5755
▁뮌헨	-11.5755
в	-11.5755
▁받았지만	-11.5755
▁캡슐	-11.5755
▁퓨전	-11.5756
▁퀴즈	-11.5756
▁핸드폰	-11.5756
▁때려잡	-11.5758
▁포착	-11.5759
▁높지만	-11.5759
▁입힌다	-11.5763
▁이어받	-11.5769
▁무엇인지	-11.5777
▁어렵고	-11.5777
▁스케줄	-11.5778
▁김윤	-11.5778
▁졸업생	-11.5778
▁재벌	-11.5778
▁받았던	-11.5781
리오스	-11.5783
▁직행	-11.5786
▁직책	-11.5791
차대전	-11.5796
ime	-11.5797
▁태어났	-11.5799
▁메트로	-11.5799
▁한나라당	-11.58
▁이순신	-11.5801
▁눈동자	-11.5801
▁라이트닝	-11.5802
▁오른팔	-11.5802
▁맡겨	-11.5806
▁있었는지	-11.5808
▁유리하다	-11.5809
잖	-11.5812
▁샘플	-11.5816
▁장례식	-11.5823
▁2017-12-1	-11.5823
▁대법원	-11.5823
▁고개	-11.5826
▁찾으러	-11.5829
▁담임	-11.5829
▁빙결	-11.5831
▁여캐	-11.5832
▁적용되지	-11.584
▁이르러	-11.5843
▁모르겠	-11.5845
者	-11.5845
▁스쿼드	-11.5845
▁feat	-11.5846
▁내세우	-11.5846
뜻	-11.5847
빼	-11.585
▁테니스	-11.5854
떻	-11.5868
▁츤데레	-11.5868
▁텔레포트	-11.5868
▁반쯤	-11.5868
▁강력하다	-11.5868
했듯	-11.5875
큼	-11.5878
▁낮추	-11.588
pa	-11.5884
▁카즈야	-11.5885
윕	-11.5891
▁움직여	-11.5891
▁데려오	-11.5891
▁일러스트레이터	-11.5892
퀸	-11.5897
▁역대급	-11.5904
▁1975	-11.5911
△	-11.5913
▁Dream	-11.5913
▁고성능	-11.5913
▁두려움	-11.5913
▁제이슨	-11.5915
▁본거지	-11.5921
▁개구리	-11.5922
▁1974	-11.5925
▁되겠다	-11.5929
▁승패	-11.5934
л	-11.5936
▁신입생	-11.5936
▁히비키	-11.5936
▁치열한	-11.5936
ana	-11.5938
실력	-11.5941
▁분쇄	-11.5945
▁넘어갈	-11.595
▁존슨	-11.5952
▁아사히	-11.5953
公	-11.5959
▁히카루	-11.5959
▁정신나간	-11.5959
▁무작정	-11.5959
▁만만치	-11.596
▁금요일	-11.596
▁무제한	-11.5961
▁느껴진다	-11.5963
▁담겨	-11.5969
▁can	-11.5981
▁하여금	-11.5982
世	-11.5982
▁사악한	-11.5983
4.1	-11.5983
▁황혼	-11.6003
見	-11.6005
깁	-11.6005
답시고	-11.6005
▁슬라임	-11.6006
▁미루어	-11.6006
▁여파로	-11.6006
▁관광객	-11.6006
둠	-11.6009
50%	-11.6015
▁올라왔	-11.6018
▁급속	-11.6022
TI	-11.6025
ᄏ	-11.6028
▁위키백과	-11.6028
▁꿈꾸	-11.603
▁유카리	-11.6031
▁하이라이트	-11.6032
▁개막전	-11.6035
amp	-11.6044
▁반란군	-11.6046
▁청나라	-11.6047
캉	-11.6051
▁실상은	-11.6053
▁일곱	-11.6057
▁버려진	-11.6062
▁한글판	-11.6062
▁따져	-11.6067
▁배웠	-11.607
▁흡혈	-11.6073
▁앨런	-11.6074
▁케리건	-11.6074
▁뒤쪽	-11.6084
▁괜찮아	-11.6087
▁밟아	-11.6089
뺀	-11.6097
▁메이플스토리	-11.6098
▁십자군	-11.6098
▁동아시아	-11.6105
깊	-11.6105
▁Vol	-11.6109
▁EZ	-11.6113
▁늘어난	-11.612
▁다큐멘터리	-11.6121
空	-11.6121
▁스트라	-11.6125
▁EBS	-11.6128
▁보였고	-11.6131
▁개그맨	-11.6133
▁지붕	-11.6138
TT	-11.6144
탈삼진	-11.6144
▁라그나	-11.6146
▁않습니다	-11.6146
▁이영호	-11.6149
IF	-11.6151
BM	-11.6152
▁부정적	-11.6155
▁다룰	-11.616
됐는데	-11.6171
▁격퇴	-11.6171
▁힌트	-11.6178
▁적극적인	-11.6179
▁윈터	-11.618
▁기관포	-11.618
▁아픈	-11.6183
▁솔저	-11.6189
▁풀어주	-11.6191
▁페미니즘	-11.6191
▁튀어나온	-11.6191
▁스매시	-11.6191
ック	-11.6191
▁약칭	-11.6194
▁정규시즌	-11.6195
▁눈앞에	-11.6195
less	-11.62
미사일	-11.6207
시켜주는	-11.6214
長	-11.6214
▁뉘앙스	-11.6214
▁서바이벌	-11.6214
家	-11.6214
▁숭배	-11.6214
▁넘어간다	-11.622
▁들으면	-11.6224
▁넘겨주	-11.623
▁바랍니다	-11.6238
쥰	-11.6238
▁마스코트	-11.6238
▁멀티플레이	-11.6239
5.0	-11.6241
▁관계없이	-11.6253
4.5	-11.6253
°	-11.6261
▁중화민국	-11.6261
▁거꾸로	-11.6261
▁오프라인	-11.6262
▁펌프	-11.6262
▁죠죠	-11.6265
▁필름	-11.6274
▁성벽	-11.6275
▁출근	-11.6277
▁증가합니다	-11.6281
▁꿰뚫	-11.6285
▁까마귀	-11.6285
▁바이에른	-11.6285
▁받아들인	-11.6289
▁면접	-11.629
▁날아다니	-11.6297
▁이어졌다	-11.6305
ling	-11.6308
▁미묘한	-11.6309
▁나타내	-11.6312
▁범행	-11.6312
▁LTE	-11.6313
3.2	-11.6328
▁컬렉션	-11.6332
法	-11.6333
▁테일즈	-11.6334
▁특훈	-11.6348
▁1969	-11.6348
뻐	-11.6351
▁냉장고	-11.6357
▁바뀌면서	-11.6365
밑	-11.6372
リー	-11.6379
▁놀랍게도	-11.638
▁노르웨이	-11.638
▁모으기	-11.6381
▁섬광	-11.6383
ress	-11.6385
▁박쥐	-11.6389
▁좁아	-11.6396
텝	-11.6399
덮	-11.64
▁주머니	-11.64
▁대구광역시	-11.6404
▁라이센스	-11.6404
▁극단적으로	-11.6404
▁꼴찌	-11.6406
▁사야카	-11.6408
▁앞뒤	-11.641
▁어쩌다	-11.6416
▁살펴보면	-11.6421
뼈	-11.6421
책임	-11.6426
옌	-11.6428
▁음색	-11.6435
▁가져간	-11.6436
맷	-11.6449
ビ	-11.6452
火	-11.6452
▁공교롭게도	-11.6452
▁어레인지	-11.6452
▁괴로워	-11.6452
▁독립운동	-11.6455
갔으나	-11.6455
퀘스트	-11.6455
▁바나나	-11.6456
▁간호사	-11.6463
▁스윙	-11.6463
▁스마트	-11.6464
▁귀족들	-11.6465
▁한마디	-11.6466
▁맥락	-11.6468
듣	-11.6469
▁붙이는	-11.6469
쫓	-11.647
샘	-11.647
▁펼친	-11.6476
귤	-11.6476
▁얼라이언스	-11.6476
▁레슬링	-11.6476
時	-11.6476
스퀘어	-11.6477
▁궤적	-11.6478
▁페르시아	-11.6478
▁다저스	-11.6479
▁도망쳐	-11.648
▁이득이	-11.6484
ough	-11.6485
戦	-11.65
ョ	-11.65
|	-11.6519
멕	-11.6573
픔	-11.6621
龍	-11.6622
왼	-11.6671
↓	-11.6695
찾	-11.6711
ツ	-11.6745
걀	-11.677
냉	-11.6792
짖	-11.6795
我	-11.6845
к	-11.6845
떄	-11.6845
島	-11.687
白	-11.687
꿇	-11.687
흉	-11.6944
꽝	-11.6945
뭉	-11.6949
몹	-11.6974
◆	-11.6996
現	-11.6996
늙	-11.7046
윗	-11.7078
곁	-11.7098
밧	-11.7098
藤	-11.7124
ェ	-11.7201
꿰	-11.7227
튕	-11.728
찢	-11.7305
部	-11.7306
愛	-11.7306
즉	-11.7317
숍	-11.7332
뱀	-11.7344
ボ	-11.7358
原	-11.7358
平	-11.7358
口	-11.7385
깜	-11.7385
찐	-11.7385
밖	-11.7412
헷	-11.7438
쏘	-11.7451
곱	-11.7499
α	-11.7518
九	-11.7518
횡	-11.7533
事	-11.7545
西	-11.7545
쭈	-11.7571
똥	-11.7616
ょ	-11.7625
ず	-11.7625
뛴	-11.7652
핍	-11.768
똘	-11.7707
얕	-11.7707
샨	-11.7707
쩌	-11.773
音	-11.7734
싹	-11.7753
和	-11.7762
寺	-11.7762
몫	-11.7811
南	-11.7817
ケ	-11.7817
윅	-11.7817
싼	-11.786
곽	-11.7864
낄	-11.7872
훅	-11.7872
맡	-11.7893
쉘	-11.7928
맴	-11.7956
벵	-11.7956
方	-11.7956
숫	-11.7981
`	-11.7984
맘	-11.801
룽	-11.8012
ᄂ	-11.804
둡	-11.804
쌈	-11.804
웍	-11.804
今	-11.8068
귄	-11.8068
덥	-11.8068
武	-11.8068
来	-11.8096
里	-11.8096
샴	-11.8096
칫	-11.8118
굼	-11.8125
改	-11.8153
安	-11.8153
낮	-11.8153
탓	-11.8154
쌀	-11.8154
‧	-11.8182
ゆ	-11.8268
正	-11.8268
흙	-11.8271
ひ	-11.8297
ワ	-11.8297
댕	-11.8297
<	-11.8326
륵	-11.8326
훤	-11.8326
石	-11.8326
멧	-11.8354
묻	-11.8359
짙	-11.8412
싣	-11.8413
セ	-11.8443
四	-11.8472
왠	-11.853
ネ	-11.8531
댈	-11.8531
ü	-11.8561
ふ	-11.8591
뜩	-11.8619
끌	-11.862
士	-11.865
찜	-11.8681
많	-11.8683
밟	-11.8726
へ	-11.8741
헝	-11.8741
녔	-11.8756
間	-11.8771
宮	-11.8771
뛰	-11.8782
텟	-11.8827
깠	-11.8893
꿍	-11.8893
色	-11.8955
땜	-11.8955
ァ	-11.9017
깍	-11.9048
―	-11.9048
뚤	-11.9111
썹	-11.9142
뜬	-11.9164
♡	-11.9174
깬	-11.9174
깰	-11.9205
폿	-11.9205
숏	-11.9237
д	-11.9269
뛸	-11.9269
名	-11.9301
竹	-11.9333
市	-11.9365
成	-11.9365
♥	-11.9397
큘	-11.9397
自	-11.943
国	-11.943
ご	-11.943
á	-11.943
力	-11.943
숀	-11.943
싯	-11.943
탯	-11.9457
쩡	-11.9462
後	-11.9462
릅	-11.9462
눅	-11.9527
뺑	-11.9527
少	-11.9527
앉	-11.9558
튠	-11.956
뎌	-11.956
꿀	-11.9587
村	-11.9593
삿	-11.9593
▶	-11.9593
夢	-11.9593
뽑	-11.9625
韓	-11.9626
真	-11.9626
陽	-11.9626
챘	-11.9626
볍	-11.9692
八	-11.9692
ᄉ	-11.9693
私	-11.9726
夜	-11.9726
目	-11.9793
軍	-11.9793
元	-11.9793
千	-11.9793
立	-11.9793
書	-11.9826
빽	-11.9826
띈	-11.986
쩐	-11.986
팻	-11.986
物	-11.986
괘	-11.9894
有	-11.9895
앱	-11.9899
ᄅ	-11.9928
州	-11.9928
作	-11.9928
덫	-11.9962
꿋	-11.9996
ᄀ	-11.9997
맏	-11.9997
気	-12.0031
前	-12.0039
늑	-12.0099
ヒ	-12.01
北	-12.01
웹	-12.0109
퀑	-12.0135
知	-12.0135
갯	-12.0168
界	-12.017
主	-12.017
五	-12.0205
돋	-12.0216
義	-12.0275
〜	-12.031
м	-12.0346
뭣	-12.0346
켠	-12.0346
ゴ	-12.0346
記	-12.0381
ベ	-12.0381
面	-12.0381
—	-12.0381
갭	-12.0381
●	-12.0396
言	-12.0417
◇	-12.0453
門	-12.0453
土	-12.0489
샀	-12.0522
◎	-12.0525
돗	-12.0561
캬	-12.0561
퀀	-12.0597
林	-12.0597
꼭	-12.0617
会	-12.0634
뎅	-12.0634
늠	-12.0671
멩	-12.0671
솥	-12.0671
즙	-12.0671
캅	-12.0671
왁	-12.0707
春	-12.0744
松	-12.0744
全	-12.0781
院	-12.0818
쉰	-12.0818
왑	-12.0856
死	-12.0856
井	-12.0893
僕	-12.0893
歌	-12.0893
쥔	-12.0931
핌	-12.0931
떤	-12.0964
샌	-12.0997
代	-12.1006
빴	-12.1044
馬	-12.1083
ヤ	-12.1083
у	-12.1121
댁	-12.1159
뉘	-12.123
恋	-12.1237
好	-12.1237
맙	-12.1314
ピ	-12.1315
び	-12.1354
都	-12.1354
社	-12.1354
合	-12.1354
ᅲ	-12.1393
및	-12.1432
宗	-12.1433
넉	-12.1472
ほ	-12.1472
谷	-12.1472
│	-12.1512
重	-12.1512
聖	-12.1513
걱	-12.1552
信	-12.1552
옛	-12.1554
華	-12.1592
깡	-12.1634
훔	-12.1671
分	-12.1673
ᄆ	-12.1673
動	-12.1714
벗	-12.1716
•	-12.1719
学	-12.1755
ö	-12.1755
江	-12.1755
좆	-12.1755
第	-12.1755
똑	-12.1796
꼈	-12.1796
й	-12.1796
퀼	-12.1796
섞	-12.1798
ポ	-12.1837
랠	-12.1837
뻑	-12.1837
何	-12.1878
읊	-12.1878
챌	-12.1878
げ	-12.192
쉔	-12.192
命	-12.1961
ぐ	-12.1961
ソ	-12.1961
꾹	-12.2003
찼	-12.2003
永	-12.2004
흠	-12.2014
理	-12.2045
夏	-12.2045
썼	-12.2057
닿	-12.2057
슷	-12.2081
曰	-12.213
낱	-12.213
듭	-12.2168
ä	-12.2172
팥	-12.2172
↔	-12.2187
옆	-12.223
꿔	-12.2253
郎	-12.2258
む	-12.2258
朝	-12.2258
짊	-12.2301
뷸	-12.2301
兵	-12.2301
닮	-12.2339
훗	-12.2344
켐	-12.2344
化	-12.2344
딛	-12.2388
넓	-12.2407
香	-12.2432
됬	-12.2432
잽	-12.2432
칵	-12.2432
ギ	-12.2432
셧	-12.2475
짭	-12.2475
츤	-12.2475
刀	-12.2475
鬼	-12.2476
皇	-12.2519
랗	-12.2519
場	-12.2519
쏙	-12.2564
셴	-12.2608
렝	-12.2608
流	-12.2653
얍	-12.2653
쿡	-12.2698
꼽	-12.2722
最	-12.2743
氏	-12.2743
超	-12.2743
使	-12.2743
딤	-12.2788
잿	-12.2788
윽	-12.2833
ザ	-12.2833
뿅	-12.2833
ヴ	-12.2833
思	-12.2879
司	-12.2879
羅	-12.2879
役	-12.2971
얗	-12.2971
多	-12.3017
帝	-12.3017
ا	-12.3017
뭄	-12.3017
슘	-12.3017
是	-12.3064
也	-12.3064
古	-12.3064
₩	-12.3064
七	-12.3064
♬	-12.3111
官	-12.3158
썩	-12.3195
↙	-12.3205
궂	-12.3205
빤	-12.3205
촘	-12.3205
『	-12.3243
佐	-12.3252
닳	-12.3252
췌	-12.3252
펭	-12.33
史	-12.33
낫	-12.334
ぎ	-12.3347
外	-12.3347
想	-12.3347
像	-12.3348
꼰	-12.3348
쑨	-12.3348
園	-12.3396
所	-12.3396
뀌	-12.3439
껌	-12.3444
떴	-12.3491
ゲ	-12.3492
옐	-12.3537
京	-12.3541
쁠	-12.3541
吉	-12.3541
學	-12.3541
未	-12.359
《	-12.3638
師	-12.3639
♂	-12.3639
룻	-12.3639
良	-12.364
팸	-12.3689
ホ	-12.3689
六	-12.3689
男	-12.3689
葉	-12.3789
엥	-12.3789
찡	-12.3789
힛	-12.3789
德	-12.3789
○	-12.3825
青	-12.3839
깅	-12.3839
썽	-12.3839
쥴	-12.3839
【	-12.3842
μ	-12.389
뇽	-12.389
깎	-12.3893
믈	-12.394
껍	-12.3977
夫	-12.3991
々	-12.3991
利	-12.3991
曲	-12.4043
ы	-12.4043
ᆯ	-12.4043
定	-12.4043
섯	-12.4078
阿	-12.4094
飛	-12.4094
륭	-12.4094
솝	-12.4094
윌	-12.4101
語	-12.4146
힙	-12.4146
б	-12.4146
秋	-12.4146
탠	-12.4193
河	-12.4198
弓	-12.4198
핫	-12.4208
堂	-12.425
끗	-12.4302
↗	-12.4303
ᄇ	-12.4303
찻	-12.4303
쳇	-12.4303
通	-12.4303
뽐	-12.4355
百	-12.4356
路	-12.4356
興	-12.4356
如	-12.4356
楽	-12.4409
띵	-12.4409
핥	-12.4409
御	-12.4409
縣	-12.4463
폄	-12.4463
守	-12.4463
ォ	-12.4516
伊	-12.4516
뎃	-12.4516
뮐	-12.4516
先	-12.4516
썰	-12.4533
멤	-12.4556
字	-12.457
츰	-12.457
얘	-12.4589
쿰	-12.4625
팎	-12.4625
遠	-12.4625
故	-12.4679
雲	-12.4679
톳	-12.4679
奈	-12.4679
뱌	-12.4679
福	-12.468
엿	-12.47
造	-12.4734
←	-12.4756
内	-12.4789
初	-12.479
張	-12.4845
ᄌ	-12.4845
얏	-12.4845
以	-12.4846
눔	-12.4901
機	-12.4957
性	-12.4957
∼	-12.4957
ゅ	-12.4957
相	-12.4958
可	-12.5014
땄	-12.5014
体	-12.507
政	-12.507
勝	-12.507
伝	-12.5071
在	-12.5071
隊	-12.5071
넴	-12.5128
뎁	-12.5128
民	-12.5185
챕	-12.5185
べ	-12.5185
ぶ	-12.5185
쟤	-12.5185
甲	-12.5185
英	-12.5185
開	-12.5185
샛	-12.5243
崎	-12.5243
몇	-12.5275
屋	-12.5301
漢	-12.5301
씽	-12.5301
仁	-12.5359
舊	-12.5359
様	-12.536
ユ	-12.536
母	-12.536
띤	-12.536
達	-12.536
玉	-12.5418
情	-12.5418
캥	-12.5418
用	-12.5478
校	-12.5478
펩	-12.5478
由	-12.5537
同	-12.5537
町	-12.5597
끽	-12.5597
텁	-12.5597
헉	-12.5597
곶	-12.5657
넋	-12.5657
ペ	-12.5718
놋	-12.5718
윳	-12.5718
黒	-12.5718
舞	-12.5718
入	-12.5779
車	-12.5779
쑹	-12.5779
꺽	-12.5779
맬	-12.5779
텃	-12.5779
ぼ	-12.5779
※	-12.5825
雪	-12.584
я	-12.584
身	-12.5902
殺	-12.5964
戈	-12.5964
츈	-12.5964
콴	-12.5964
加	-12.5964
極	-12.5964
貴	-12.6026
쾅	-12.6026
ο	-12.6026
햐	-12.6026
意	-12.6089
向	-12.6089
탤	-12.6089
à	-12.6153
숄	-12.6153
컥	-12.6153
삑	-12.6153
킵	-12.6212
度	-12.6216
í	-12.6216
ᅡ	-12.6216
志	-12.628
津	-12.628
굿	-12.634
了	-12.6345
電	-12.6345
ó	-12.6345
г	-12.6345
ь	-12.6345
쟝	-12.6345
ā	-12.641
땠	-12.641
웡	-12.641
臣	-12.641
꽂	-12.6473
ざ	-12.6475
劍	-12.6475
解	-12.6541
씰	-12.6541
앳	-12.6541
笑	-12.6541
С	-12.6541
춥	-12.6607
樹	-12.6674
波	-12.6674
깼	-12.6674
能	-12.6741
▼	-12.6741
戰	-12.6741
影	-12.6809
橋	-12.6809
굳	-12.6811
実	-12.6877
智	-12.6877
感	-12.6945
切	-12.6945
岡	-12.7014
術	-12.7014
읽	-12.702
府	-12.7084
⋯	-12.7084
쓱	-12.7084
雨	-12.7153
п	-12.7153
親	-12.7153
맣	-12.7153
뺐	-12.7153
눴	-12.7153
經	-12.7154
얌	-12.7224
形	-12.7224
食	-12.7224
귓	-12.7224
촐	-12.7224
式	-12.7224
첫	-12.7237
任	-12.7295
雷	-12.7295
ν	-12.7295
슝	-12.7295
팠	-12.7295
ل	-12.7295
集	-12.7366
悪	-12.7366
望	-12.7366
밉	-12.7366
삥	-12.7366
祖	-12.7438
洞	-12.7438
녘	-12.7438
友	-12.7438
治	-12.7439
特	-12.7511
ρ	-12.7511
廿	-12.7511
걔	-12.7511
헴	-12.7511
잰	-12.7584
¥	-12.7584
ı	-12.7584
鳥	-12.7584
쉼	-12.7584
ぁ	-12.7584
郡	-12.7584
直	-12.7584
俺	-12.7657
久	-12.7657
卜	-12.7657
紅	-12.7657
進	-12.7657
녜	-12.7657
쌤	-12.7657
次	-12.7657
撃	-12.7731
휠	-12.7756
強	-12.7806
終	-12.7806
윔	-12.7806
핼	-12.7806
è	-12.7806
텼	-12.7806
父	-12.7881
놉	-12.7881
周	-12.7881
끓	-12.7909
ゾ	-12.7957
돛	-12.7957
퓌	-12.7957
雄	-12.7957
욤	-12.8033
춧	-12.8033
뒹	-12.8033
멋	-12.8065
갇	-12.811
要	-12.811
森	-12.811
з	-12.811
ぜ	-12.811
걍	-12.811
뮈	-12.811
뺄	-12.811
指	-12.811
싫	-12.8143
反	-12.8187
得	-12.8188
頭	-12.8188
姫	-12.8188
赤	-12.8188
坂	-12.8188
봅	-12.8188
빡	-12.8223
ヨ	-12.8266
찹	-12.8266
컹	-12.8266
튤	-12.8266
녁	-12.8341
打	-12.8344
쎈	-12.8344
힉	-12.8344
桜	-12.8344
ぬ	-12.8344
台	-12.8344
話	-12.8344
對	-12.8424
將	-12.8424
完	-12.8424
흰	-12.8465
靑	-12.8504
듐	-12.8504
닙	-12.8504
엡	-12.8504
善	-12.8504
若	-12.8584
変	-12.8584
륀	-12.8584
衛	-12.8584
而	-12.8585
늬	-12.8611
룹	-12.8637
回	-12.8666
沙	-12.8666
듄	-12.8666
펍	-12.8666
功	-12.8666
其	-12.8668
믿	-12.8704
‘	-12.8713
뵈	-12.8748
엌	-12.8748
ч	-12.8748
教	-12.8748
景	-12.8748
듦	-12.883
짰	-12.883
톈	-12.883
殿	-12.883
落	-12.883
剣	-12.883
씀	-12.8908
會	-12.8914
ᆡ	-12.8914
氣	-12.8914
萬	-12.8914
퓰	-12.8914
常	-12.8914
꽉	-12.8967
꼼	-12.8996
血	-12.8998
떳	-12.8998
眞	-12.8998
猫	-12.8998
館	-12.8998
숯	-12.8998
咲	-12.8998
決	-12.8998
ぞ	-12.9082
連	-12.9082
乙	-12.9082
草	-12.9083
果	-12.9083
持	-12.9168
乃	-12.9168
뼛	-12.9168
傳	-12.9168
뫼	-12.9168
휙	-12.9168
魂	-12.9168
制	-12.9168
非	-12.9254
然	-12.9254
幻	-12.9254
趙	-12.9254
갬	-12.9254
줏	-12.9254
幸	-12.9254
素	-12.9254
始	-12.9254
“	-12.9316
放	-12.9341
熱	-12.9341
竜	-12.9341
훨	-12.9341
麻	-12.9341
衣	-12.9342
修	-12.9429
敵	-12.9429
ぱ	-12.9429
忠	-12.9429
等	-12.9517
保	-12.9517
沢	-12.9517
那	-12.9517
ː	-12.9517
ر	-12.9517
宇	-12.9517
尸	-12.9517
慶	-12.9517
紀	-12.9518
쌓	-12.9586
泉	-12.9607
А	-12.9607
声	-12.9607
ᆫ	-12.9607
ゼ	-12.9607
뗀	-12.9607
폈	-12.9607
優	-12.9607
튄	-12.9697
ε	-12.9697
絶	-12.9697
β	-12.9697
瀬	-12.9697
運	-12.9697
듈	-12.9782
当	-12.9787
結	-12.9788
쪄	-12.9788
첵	-12.9788
휼	-12.9788
朱	-12.9788
根	-12.9788
節	-12.9788
球	-12.9879
旅	-12.9879
쥘	-12.9879
ς	-12.9879
老	-12.9879
뿍	-12.9879
味	-12.9879
起	-12.988
章	-12.988
異	-12.988
后	-12.9972
艦	-12.9972
ə	-12.9972
딨	-12.9972
∞	-12.9972
꿎	-12.9972
쾰	-12.9972
К	-12.9972
番	-12.9972
勇	-12.9972
丸	-13.0065
陵	-13.0065
댑	-13.0065
쾨	-13.0065
냠	-13.0065
욜	-13.0065
챗	-13.0065
源	-13.0065
昌	-13.0066
足	-13.0066
М	-13.016
ι	-13.016
♀	-13.016
編	-13.016
갛	-13.016
內	-13.0255
ぇ	-13.0255
遊	-13.0255
롄	-13.0255
볕	-13.0255
難	-13.0351
越	-13.0351
丁	-13.0351
낑	-13.0351
볐	-13.0351
別	-13.0351
令	-13.0448
孝	-13.0448
쫙	-13.0448
願	-13.0448
破	-13.0546
♣	-13.0546
彩	-13.0546
酒	-13.0547
陳	-13.0547
業	-13.0547
좁	-13.0645
工	-13.0645
聞	-13.0645
你	-13.0645
博	-13.0645
止	-13.0645
麗	-13.0645
黃	-13.0645
웁	-13.0645
紙	-13.0745
左	-13.0745
巻	-13.0745
劉	-13.0745
渡	-13.0745
孫	-13.0846
図	-13.0846
族	-13.0846
τ	-13.0846
銀	-13.0846
갠	-13.0846
힝	-13.0846
侯	-13.0846
倉	-13.0846
室	-13.0846
尾	-13.0846
낚	-13.085
괜	-13.085
佛	-13.0948
ن	-13.0948
輝	-13.0948
廣	-13.0949
精	-13.1051
希	-13.1051
奇	-13.1051
菜	-13.1051
빕	-13.1051
交	-13.1051
富	-13.1156
샅	-13.1156
純	-13.1156
怪	-13.1156
긱	-13.1156
柳	-13.1156
튬	-13.126
取	-13.1261
万	-13.1261
線	-13.1261
羽	-13.1261
뇰	-13.1261
뗄	-13.1261
쬐	-13.1261
잤	-13.1261
深	-13.1261
顔	-13.1261
威	-13.1261
服	-13.1261
쫄	-13.1274
늦	-13.1274
発	-13.1367
期	-13.1367
画	-13.1367
彼	-13.1367
훙	-13.1367
祭	-13.1368
提	-13.1475
必	-13.1475
議	-13.1475
報	-13.1475
右	-13.1475
宣	-13.1475
ш	-13.1475
멥	-13.1475
뀨	-13.1475
器	-13.1475
付	-13.1583
م	-13.1583
虎	-13.1583
쨋	-13.1583
х	-13.1583
秘	-13.1584
젖	-13.1603
깽	-13.1693
彦	-13.1693
λ	-13.1693
炎	-13.1693
陰	-13.1693
뮌	-13.1693
뻤	-13.1693
쇳	-13.1693
冬	-13.1804
号	-13.1804
岩	-13.1804
權	-13.1804
魚	-13.1804
П	-13.1804
닻	-13.1804
뵙	-13.1804
쫀	-13.1804
走	-13.1804
種	-13.1805
諸	-13.1806
맺	-13.1829
씹	-13.1829
待	-13.1917
В	-13.1917
♤	-13.1917
鄭	-13.1917
片	-13.1917
基	-13.1917
近	-13.1917
浦	-13.203
船	-13.203
ī	-13.203
́	-13.203
仙	-13.203
秀	-13.203
護	-13.203
슥	-13.203
闘	-13.203
隆	-13.203
着	-13.2031
皆	-13.2031
仲	-13.2145
消	-13.2145
⇒	-13.2145
密	-13.2145
洋	-13.2145
낵	-13.2145
홋	-13.2145
鮮	-13.2145
樂	-13.2146
布	-13.2146
至	-13.2146
뚫	-13.2178
備	-13.2261
來	-13.2262
歩	-13.2262
朴	-13.2262
쟌	-13.2262
쭤	-13.2262
督	-13.2262
離	-13.2262
爲	-13.2263
関	-13.2379
県	-13.2379
助	-13.2379
鉄	-13.2379
派	-13.2379
끙	-13.2379
앴	-13.2379
矢	-13.2379
区	-13.2498
申	-13.2498
쌔	-13.2498
ō	-13.2498
闇	-13.2498
츨	-13.2498
戸	-13.2498
詩	-13.2498
統	-13.2499
活	-13.2619
〔	-13.2619
و	-13.2619
ᅮ	-13.2619
輪	-13.2619
꺄	-13.2619
넝	-13.2619
늉	-13.2619
邪	-13.2619
꿉	-13.2619
靈	-13.274
澤	-13.2741
比	-13.2741
↖	-13.2741
〕	-13.2741
ヘ	-13.2741
寧	-13.2741
ú	-13.2741
拳	-13.2741
茶	-13.2741
펨	-13.2741
半	-13.2864
清	-13.2864
科	-13.2864
돤	-13.2864
ç	-13.2864
暗	-13.2864
淸	-13.2864
翼	-13.2864
ê	-13.2864
則	-13.2864
錄	-13.2864
弘	-13.2864
宝	-13.2864
呼	-13.2865
鈴	-13.2865
再	-13.2989
著	-13.2989
斬	-13.2989
윾	-13.2989
쭐	-13.2989
誰	-13.2989
귈	-13.2989
印	-13.2989
禮	-13.299
限	-13.3116
犬	-13.3116
妖	-13.3116
支	-13.3116
警	-13.3116
눗	-13.3116
ᅩ	-13.3116
康	-13.3244
建	-13.3244
介	-13.3244
対	-13.3244
考	-13.3244
伯	-13.3244
符	-13.3244
表	-13.3244
順	-13.3244
Ω	-13.3244
乱	-13.3244
喜	-13.3244
鏡	-13.3244
速	-13.3244
品	-13.3244
受	-13.3374
狂	-13.3374
騎	-13.3374
賀	-13.3374
️	-13.3374
崔	-13.3374
삘	-13.3374
居	-13.3374
律	-13.3374
組	-13.3374
眼	-13.3374
뒷	-13.3438
쁨	-13.35
这	-13.3505
説	-13.3505
於	-13.3505
雅	-13.3505
去	-13.3505
広	-13.3505
豊	-13.3505
뵤	-13.3505
€	-13.3506
楊	-13.3506
땋	-13.3506
촨	-13.3506
쿈	-13.3506
헵	-13.3506
爆	-13.3506
省	-13.3506
寶	-13.3506
緒	-13.3506
奏	-13.3506
剛	-13.3506
뀐	-13.3634
角	-13.3639
論	-13.3639
房	-13.3639
®	-13.3639
客	-13.3639
站	-13.3639
裏	-13.3639
렷	-13.3639
弾	-13.3639
敎	-13.3639
湖	-13.3639
続	-13.3639
黑	-13.3639
뗏	-13.3639
烈	-13.3639
蓮	-13.3639
街	-13.3639
尊	-13.3639
牛	-13.3639
許	-13.3639
묶	-13.371
突	-13.3774
失	-13.3774
早	-13.3774
忍	-13.3774
駅	-13.3774
娘	-13.3774
承	-13.3774
池	-13.3774
켤	-13.3774
ی	-13.3774
ᄎ	-13.3774
俊	-13.3774
큭	-13.3774
홧	-13.3774
횬	-13.3774
約	-13.3774
装	-13.391
蔵	-13.3911
體	-13.3911
Н	-13.3911
♧	-13.3911
典	-13.3911
秦	-13.3911
亜	-13.3911
塔	-13.3911
ᅦ	-13.3911
復	-13.3911
就	-13.405
苦	-13.405
転	-13.405
壽	-13.405
附	-13.405
′	-13.405
Р	-13.405
欲	-13.405
裕	-13.405
갖	-13.4131
옳	-13.4132
貞	-13.419
過	-13.4191
降	-13.4191
쮸	-13.4191
技	-13.4191
Т	-13.4191
♯	-13.4191
筆	-13.4191
ぽ	-13.4191
育	-13.4191
梅	-13.4191
共	-13.4191
佳	-13.4191
及	-13.4191
젊	-13.4277
負	-13.4333
촛	-13.4334
헹	-13.4334
О	-13.4334
겅	-13.4334
쉈	-13.4334
沈	-13.4334
晴	-13.4478
兄	-13.4478
氷	-13.4478
郞	-13.4478
首	-13.4478
꿩	-13.4478
±	-13.4478
将	-13.4478
条	-13.4478
滅	-13.4479
型	-13.4625
抱	-13.4625
米	-13.4625
И	-13.4626
鐵	-13.4626
σ	-13.4626
賢	-13.4626
鎭	-13.4626
霊	-13.4626
벚	-13.4626
砂	-13.4626
팼	-13.4626
塚	-13.4626
黄	-13.4626
恵	-13.4626
惡	-13.4626
띄	-13.4725
巨	-13.4774
追	-13.4775
防	-13.4775
唐	-13.4775
ж	-13.4775
د	-13.4775
ي	-13.4775
妹	-13.4775
晉	-13.4775
誠	-13.4775
랖	-13.4775
浩	-13.4775
病	-13.4775
点	-13.4926
件	-13.4926
紫	-13.4926
κ	-13.4926
ᇰ	-13.4926
圖	-13.4926
ᅥ	-13.4926
夕	-13.4926
念	-13.4926
陣	-13.4926
港	-13.4926
毒	-13.4926
잊	-13.5035
陸	-13.508
ß	-13.508
づ	-13.508
γ	-13.508
鳳	-13.508
뮴	-13.508
씸	-13.508
틋	-13.508
쫑	-13.508
才	-13.508
辺	-13.508
休	-13.5081
務	-13.5236
留	-13.5236
ω	-13.5236
残	-13.5236
送	-13.5236
央	-13.5236
毛	-13.5236
숑	-13.5236
ᅀ	-13.5236
商	-13.5236
坐	-13.5236
調	-13.5236
鳴	-13.5236
뵐	-13.5236
封	-13.5236
航	-13.5236
織	-13.5236
攻	-13.5236
憲	-13.5237
選	-13.5395
玄	-13.5395
座	-13.5395
弥	-13.5395
季	-13.5395
昭	-13.5395
獣	-13.5395
迷	-13.5395
햏	-13.5395
┗	-13.5395
텡	-13.5395
略	-13.5395
健	-13.5396
散	-13.5556
団	-13.5556
Φ	-13.5556
息	-13.5556
禁	-13.5556
關	-13.5556
ί	-13.5556
닢	-13.5556
克	-13.5556
Г	-13.5556
員	-13.5556
又	-13.5557
計	-13.572
尙	-13.572
双	-13.572
敬	-13.572
熊	-13.572
胡	-13.572
蒼	-13.572
鶴	-13.572
ì	-13.572
ɪ	-13.572
嘉	-13.572
版	-13.572
괌	-13.572
띌	-13.572
샥	-13.572
죤	-13.572
삶	-13.5856
局	-13.5887
経	-13.5887
具	-13.5887
射	-13.5887
住	-13.5887
叉	-13.5887
丹	-13.5887
宙	-13.5887
帰	-13.5887
킁	-13.5887
퓸	-13.5887
肉	-13.5887
配	-13.5887
末	-13.6056
吾	-13.6057
牙	-13.6057
깻	-13.6057
曹	-13.6057
演	-13.6057
넵	-13.6057
엾	-13.6057
束	-13.6057
痛	-13.6057
遺	-13.6229
依	-13.6229
絵	-13.6229
蘭	-13.6229
떵	-13.6229
ب	-13.6229
問	-13.6229
臺	-13.6229
뜀	-13.6229
뿡	-13.6229
쿱	-13.6229
ē	-13.6229
ş	-13.6229
ᄐ	-13.6229
ゥ	-13.6229
냑	-13.6229
宋	-13.6229
實	-13.6229
徳	-13.6229
盛	-13.6229
辰	-13.6229
濟	-13.6404
祐	-13.6404
뾰	-13.6404
飯	-13.6404
ा	-13.6404
列	-13.6404
己	-13.6404
Б	-13.6404
〃	-13.6404
円	-13.6404
먀	-13.6404
옭	-13.6404
π	-13.6404
י	-13.6404
摩	-13.6404
格	-13.6404
逆	-13.6404
劇	-13.6404
告	-13.6404
姉	-13.6404
込	-13.6404
怒	-13.6404
延	-13.6404
因	-13.6405
激	-13.6405
洪	-13.6405
泰	-13.6405
잃	-13.657
砲	-13.6583
奥	-13.6583
亮	-13.6583
観	-13.6583
Д	-13.6583
么	-13.6583
£	-13.6583
登	-13.6583
뷜	-13.6583
챤	-13.6583
É	-13.6583
旋	-13.6583
껐	-13.6583
覚	-13.6583
區	-13.6583
参	-13.6583
吳	-13.6583
뿜	-13.6741
響	-13.6765
須	-13.6765
號	-13.6765
忘	-13.6765
狼	-13.6765
葛	-13.6765
η	-13.6765
斯	-13.6765
涙	-13.6765
꽈	-13.6765
냔	-13.6765
땔	-13.6765
셌	-13.6765
햅	-13.6765
跡	-13.6765
맸	-13.6765
眠	-13.6765
蘇	-13.6766
梁	-13.695
罪	-13.695
ぴ	-13.695
銅	-13.695
ŋ	-13.695
哲	-13.695
姓	-13.695
虹	-13.695
뗐	-13.695
벰	-13.695
察	-13.695
弟	-13.695
珠	-13.695
ц	-13.695
ぷ	-13.695
獄	-13.695
榮	-13.695
條	-13.695
짧	-13.713
求	-13.7139
說	-13.7139
亭	-13.7139
â	-13.7139
ǎ	-13.7139
ᄑ	-13.7139
儀	-13.7139
探	-13.7139
觀	-13.7139
骨	-13.7139
몆	-13.7139
욧	-13.7139
系	-13.7139
静	-13.7139
뭍	-13.7139
쩜	-13.7139
ヌ	-13.7139
届	-13.7139
監	-13.7139
丈	-13.7139
應	-13.7139
與	-13.7139
急	-13.7331
勢	-13.7331
傷	-13.7331
浜	-13.7331
긔	-13.7331
Δ	-13.7331
満	-13.7331
썅	-13.7331
쏭	-13.7331
墨	-13.7331
桃	-13.7331
薩	-13.7331
藏	-13.7331
邦	-13.7331
꼐	-13.7331
넙	-13.7331
뮨	-13.7331
빻	-13.7331
仮	-13.7331
恭	-13.7331
亡	-13.7332
邑	-13.7333
鹿	-13.7527
萌	-13.7527
敗	-13.7527
薬	-13.7527
强	-13.7527
産	-13.7527
綾	-13.7527
悲	-13.7527
宿	-13.7527
独	-13.7527
█	-13.7527
擊	-13.7527
냇	-13.7527
š	-13.7527
≤	-13.7527
좇	-13.7527
刺	-13.7527
妃	-13.7527
燃	-13.7527
位	-13.7527
吹	-13.7527
快	-13.7527
製	-13.7527
侍	-13.7527
컫	-13.7727
置	-13.7727
翔	-13.7727
ū	-13.7727
χ	-13.7727
◈	-13.7727
悟	-13.7727
閃	-13.7727
띔	-13.7727
빰	-13.7727
윷	-13.7727
튿	-13.7727
̊	-13.7727
断	-13.7727
ʃ	-13.7727
揮	-13.7727
類	-13.7727
燕	-13.7727
到	-13.7931
憶	-13.7931
暴	-13.7931
視	-13.7931
ά	-13.7931
ه	-13.7931
≥	-13.7931
掌	-13.7931
젭	-13.7931
≫	-13.7931
쩝	-13.7931
÷	-13.7931
妻	-13.7931
返	-13.7931
板	-13.7931
養	-13.7931
創	-13.7932
茂	-13.7932
亞	-13.8139
引	-13.8139
絹	-13.8139
象	-13.8139
臨	-13.8139
量	-13.8139
為	-13.8139
烏	-13.8139
굇	-13.8139
냘	-13.8139
坊	-13.8139
胸	-13.8139
§	-13.8139
齊	-13.814
恩	-13.814
浮	-13.814
숴	-13.8346
更	-13.8352
植	-13.8352
没	-13.8352
段	-13.8352
옙	-13.8352
θ	-13.8352
呂	-13.8352
Σ	-13.8352
刃	-13.8352
導	-13.8352
徐	-13.8352
疾	-13.8352
買	-13.8352
零	-13.8352
깟	-13.8352
볏	-13.8352
츙	-13.8352
課	-13.8352
궜	-13.8352
짢	-13.8352
呪	-13.8352
注	-13.8352
霧	-13.8352
抜	-13.8352
横	-13.8352
荒	-13.8569
副	-13.8569
域	-13.8569
境	-13.857
干	-13.857
微	-13.857
孤	-13.857
湯	-13.857
恐	-13.857
琴	-13.857
뽈	-13.857
웸	-13.857
윰	-13.857
冠	-13.857
姬	-13.857
幕	-13.857
杉	-13.857
甘	-13.857
쌘	-13.857
瞬	-13.857
端	-13.857
畑	-13.857
泣	-13.857
差	-13.857
數	-13.857
낳	-13.8591
횟	-13.872
聲	-13.8792
믄	-13.8792
頂	-13.8792
乾	-13.8792
刻	-13.8792
救	-13.8792
і	-13.8792
岸	-13.8792
뻬	-13.8792
尹	-13.8792
昇	-13.8792
益	-13.8792
蛇	-13.8792
姜	-13.8792
管	-13.8792
虛	-13.8792
豪	-13.8792
梨	-13.8792
群	-13.8792
判	-13.9019
嶋	-13.9019
震	-13.9019
照	-13.9019
予	-13.9019
料	-13.9019
ю	-13.9019
ᄊ	-13.9019
伸	-13.9019
熙	-13.9019
댜	-13.9019
훠	-13.9019
庭	-13.9019
껀	-13.9019
쭝	-13.9019
究	-13.9019
魏	-13.9019
爪	-13.9019
從	-13.9019
奴	-13.902
農	-13.902
밝	-13.9051
쏜	-13.9051
踊	-13.9252
便	-13.9252
辛	-13.9252
陀	-13.9252
्	-13.9252
仕	-13.9252
滿	-13.9252
領	-13.9252
題	-13.9252
尉	-13.9252
斗	-13.9252
씁	-13.9252
죌	-13.9252
奉	-13.9252
爾	-13.9252
봬	-13.9252
즛	-13.9252
챰	-13.9252
υ	-13.9252
У	-13.9252
━	-13.9252
嵐	-13.9252
銘	-13.9252
ぃ	-13.9252
焼	-13.9252
危	-13.9252
槍	-13.9252
容	-13.9252
惠	-13.9252
빚	-13.9289
職	-13.9489
您	-13.9489
投	-13.9489
舍	-13.949
険	-13.949
試	-13.949
猛	-13.949
乗	-13.949
菩	-13.949
覇	-13.949
伏	-13.949
峰	-13.949
ヶ	-13.949
團	-13.949
違	-13.949
뒈	-13.949
뱁	-13.949
쳉	-13.949
童	-13.949
維	-13.949
ຈ	-13.949
輔	-13.949
祝	-13.949
細	-13.949
發	-13.949
阪	-13.9733
供	-13.9733
耳	-13.9734
露	-13.9734
冷	-13.9734
頼	-13.9734
柱	-13.9734
黎	-13.9734
丘	-13.9734
唄	-13.9734
牧	-13.9734
變	-13.9734
슉	-13.9734
ت	-13.9734
莊	-13.9734
兒	-13.9734
染	-13.9734
練	-13.9734
看	-13.9734
他	-13.9734
▒	-13.9983
移	-13.9983
嫌	-13.9983
祥	-13.9983
ヲ	-13.9984
伐	-13.9984
둣	-13.9984
ë	-13.9984
✴	-13.9984
齋	-13.9984
넒	-13.9984
칰	-13.9984
틔	-13.9984
ɯ	-13.9984
溪	-13.9984
羊	-13.9984
映	-13.9984
瑞	-13.9984
普	-13.9984
栗	-13.9984
餘	-13.9984
徒	-13.9984
逃	-13.9984
릎	-14.0234
接	-14.024
征	-14.024
振	-14.024
吧	-14.024
뺴	-14.024
͡	-14.024
▽	-14.024
致	-14.024
芳	-14.024
돡	-14.024
쉿	-14.024
젔	-14.024
س	-14.024
ᅢ	-14.024
枝	-14.024
研	-14.024
準	-14.024
革	-14.0241
賊	-14.0241
얻	-14.0292
總	-14.0503
顯	-14.0503
穂	-14.0503
応	-14.0503
怖	-14.0503
∀	-14.0503
æ	-14.0503
ה	-14.0503
−	-14.0503
壁	-14.0503
戒	-14.0503
鐘	-14.0503
뜷	-14.0503
ù	-14.0503
δ	-14.0503
哉	-14.0503
倒	-14.0503
庫	-14.0503
載	-14.0504
헛	-14.0571
召	-14.0773
除	-14.0773
級	-14.0773
油	-14.0773
ό	-14.0773
◀	-14.0773
❤	-14.0773
藥	-14.0773
빳	-14.0773
ã	-14.0773
ё	-14.0773
ᄁ	-14.0773
啓	-14.0773
孔	-14.0773
桂	-14.0773
淳	-14.0773
藍	-14.0773
虫	-14.0773
雙	-14.0773
쑈	-14.0773
욥	-14.0773
쨰	-14.0773
쪘	-14.0773
찧	-14.0773
刑	-14.0773
包	-14.0773
헀	-14.0773
幡	-14.0773
ぉ	-14.0773
旗	-14.0773
隠	-14.0773
駆	-14.0774
莫	-14.0774
数	-14.0774
浪	-14.0774
鼓	-14.0774
只	-14.1051
于	-14.1051
援	-14.1051
兼	-14.1051
短	-14.1051
拉	-14.1051
午	-14.1051
寄	-14.1051
店	-14.1051
ø	-14.1051
ぺ	-14.1051
亂	-14.1051
協	-14.1051
岳	-14.1051
步	-14.1051
瞳	-14.1051
習	-14.1051
衆	-14.1051
쿳	-14.1051
ᄫ	-14.1051
冥	-14.1051
納	-14.1051
쇤	-14.1051
背	-14.1051
施	-14.1051
戶	-14.1052
資	-14.1052
各	-14.1053
弱	-14.1337
存	-14.1337
已	-14.1337
構	-14.1337
ˈ	-14.1337
乐	-14.1337
兩	-14.1337
唯	-14.1337
≒	-14.1337
磁	-14.1337
葵	-14.1337
蝶	-14.1337
볜	-14.1337
옻	-14.1337
왱	-14.1337
坪	-14.1337
갉	-14.1337
셍	-14.1337
뎠	-14.1337
歳	-14.1337
敏	-14.1337
卷	-14.1337
營	-14.1337
靖	-14.1631
増	-14.1631
質	-14.1631
战	-14.1631
Л	-14.1631
菊	-14.1631
ق	-14.1631
逢	-14.1631
ñ	-14.1631
č	-14.1631
ǐ	-14.1631
ᅧ	-14.1631
‬	-14.1631
⊙	-14.1631
✅	-14.1631
乳	-14.1631
綠	-14.1631
还	-14.1631
썻	-14.1631
햣	-14.1631
糸	-14.1631
郷	-14.1631
敦	-14.1631
読	-14.1631
栄	-14.1631
什	-14.1631
뭘	-14.1733
쏴	-14.1733
为	-14.1934
ร	-14.1934
此	-14.1934
冒	-14.1934
呢	-14.1934
認	-14.1934
น	-14.1934
与	-14.1934
夷	-14.1934
際	-14.1934
涼	-14.1934
豆	-14.1934
ɛ	-14.1934
混	-14.1934
ش	-14.1934
吸	-14.1934
頃	-14.1934
ᆷ	-14.1934
僧	-14.1934
哀	-14.1934
楚	-14.1934
淵	-14.1934
証	-14.1934
閣	-14.1934
隣	-14.1934
넹	-14.1934
⭐	-14.1934
寝	-14.1934
뽁	-14.1934
퍄	-14.1934
答	-14.1934
叫	-14.1934
環	-14.1934
展	-14.1934
崇	-14.1934
處	-14.1935
宏	-14.1935
꺾	-14.2044
끊	-14.2045
或	-14.2246
被	-14.2246
迎	-14.2247
ิ	-14.2247
们	-14.2247
揺	-14.2247
謝	-14.2247
軽	-14.2247
멱	-14.2247
句	-14.2247
折	-14.2247
耶	-14.2247
退	-14.2247
έ	-14.2247
卿	-14.2247
襲	-14.2247
뎨	-14.2247
휜	-14.2247
ğ	-14.2247
Λ	-14.2247
卑	-14.2247
參	-14.2247
圭	-14.2247
堀	-14.2247
序	-14.2247
棒	-14.2247
莉	-14.2247
鍾	-14.2247
隱	-14.2247
엷	-14.2247
옇	-14.2247
‪	-14.2247
洛	-14.2247
伽	-14.2247
裂	-14.2247
箱	-14.2247
録	-14.2247
繋	-14.2247
補	-14.2247
轉	-14.2247
獸	-14.2247
눠	-14.2563
状	-14.2569
腹	-14.2569
両	-14.2569
ɡ	-14.2569
亀	-14.2569
偶	-14.2569
玲	-14.2569
­	-14.2569
ּ	-14.2569
凶	-14.2569
巴	-14.2569
朗	-14.2569
桐	-14.2569
狐	-14.2569
範	-14.2569
藩	-14.2569
誕	-14.2569
鷹	-14.2569
쐬	-14.2569
웩	-14.2569
촙	-14.2569
Х	-14.2569
َ	-14.2569
洗	-14.2569
害	-14.2569
識	-14.2569
唱	-14.2569
執	-14.2569
慈	-14.2569
ו	-14.2569
争	-14.2569
걷	-14.27
ぅ	-14.2902
屬	-14.2902
巡	-14.2902
態	-14.2902
淨	-14.2902
र	-14.2902
充	-14.2902
講	-14.2902
杯	-14.2902
写	-14.2903
惑	-14.2903
挑	-14.2903
歲	-14.2903
獨	-14.2903
璃	-14.2903
Я	-14.2903
盟	-14.2903
笠	-14.2903
舟	-14.2903
갗	-14.2903
곗	-14.2903
맟	-14.2903
섕	-14.2903
쌰	-14.2903
콸	-14.2903
큅	-14.2903
∙	-14.2903
悠	-14.2903
雀	-14.2903
頑	-14.2903
描	-14.2903
杜	-14.2903
浅	-14.2903
磨	-14.2903
葬	-14.2903
売	-14.2903
晶	-14.2903
芸	-14.2903
推	-14.2903
瑠	-14.2903
徹	-14.2903
積	-14.2904
厚	-14.2904
텨	-14.3246
个	-14.3247
า	-14.3247
余	-14.3247
ф	-14.3247
ò	-14.3247
ć	-14.3247
Α	-14.3247
♭	-14.3247
單	-14.3247
ר	-14.3247
似	-14.325
꽤	-14.3774
쏠	-14.4158
깥	-14.6061
밌	-14.6538
돕	-14.7367
쐐	-14.9334
뀔	-15.3224
츳	-15.3229
⌀	-15.9417
콱	-15.9418
짦	-15.9419
젋	-15.942
휑	-15.9421
곪	-15.9422
흄	-15.9423
🐍	-15.9424
◦	-15.9425
꼿	-15.9426
└	-15.9427
멓	-15.9428
멎	-15.9429
넜	-15.943
붑	-15.9431
캑	-15.9432
뺌	-15.9433
쭘	-15.9434
묀	-15.9435
≪	-15.9436
혓	-15.9437
굣	-15.9438
죗	-15.9439
딫	-15.944
탉	-15.9441
넸	-15.9442
튈	-15.9443
뀜	-15.9444
◾	-15.9445
훑	-15.9446
몄	-15.9447
슭	-15.9448
뻣	-15.9449
묠	-15.945
쐈	-15.9451
¶	-15.9452
쌌	-15.9453
숟	-15.9454
숱	-15.9455
扮	-15.9456
옅	-15.9457
횃	-15.9458
괭	-15.9459
덟	-15.946
섣	-15.9461
찝	-15.9462
쌩	-15.9463
낡	-15.9464
껑	-15.9465
⁄	-15.9466
얇	-15.9467
뉜	-15.9468
뤘	-15.9469
앓	-15.947
꿨	-15.9471
쫒	-15.9472
췄	-15.9473
흩	-15.9474
뱉	-15.9475
됩	-15.9476
뺏	-15.9477
엮	-15.9478
쨌	-15.9479
쏟	-15.948
옮	-15.9481
겪	-15.9482
펼	-15.9483
켰	-15.9484
넣	-15.9485
컸	-15.9485
